{
  " ": 0,
  "!": 1,
  "!'</w>": 2,
  "!</w>": 3,
  "\"": 4,
  "\"</w>": 5,
  "'": 6,
  "'--": 7,
  "'</w>": 8,
  "'Al": 9,
  "'And</w>": 10,
  "'F": 11,
  "'G": 12,
  "'H": 13,
  "'I</w>": 14,
  "'If</w>": 15,
  "'In</w>": 16,
  "'N": 17,
  "'Now</w>": 18,
  "'O</w>": 19,
  "'Of</w>": 20,
  "'S": 21,
  "'T": 22,
  "'The</w>": 23,
  "'Thy</w>": 24,
  "'Tis</w>": 25,
  "'To</w>": 26,
  "'Twas</w>": 27,
  "'W": 28,
  "'Wh": 29,
  "'What</w>": 30,
  "'Who</w>": 31,
  "'Why</w>": 32,
  "'er</w>": 33,
  "'gainst</w>": 34,
  "'in</w>": 35,
  "'l": 36,
  "'mong</w>": 37,
  "'neath</w>": 38,
  "'s": 39,
  "'s,</w>": 40,
  "'s</w>": 41,
  "'st</w>": 42,
  "'t": 43,
  "'the</w>": 44,
  "'tis</w>": 45,
  "'twas</w>": 46,
  "(": 47,
  "(_": 48,
  "(_Convito_</w>": 49,
  "(_Inf._</w>": 50,
  "(_Parad._</w>": 51,
  "(_Purg._</w>": 52,
  ")": 53,
  "),</w>": 54,
  ").</w>": 55,
  ");</w>": 56,
  ")</w>": 57,
  ",": 58,
  ",'": 59,
  ",'</w>": 60,
  ",</w>": 61,
  ",[1": 62,
  ",[18": 63,
  ",[2": 64,
  ",[3": 65,
  ",[4": 66,
  ",[5": 67,
  ",[55": 68,
  "-": 69,
  "--": 70,
  "--</w>": 71,
  "--in</w>": 72,
  "--that</w>": 73,
  "--the</w>": 74,
  ".": 75,
  ".'": 76,
  ".'--": 77,
  ".'</w>": 78,
  ".,</w>": 79,
  ".--": 80,
  "..": 81,
  ".</w>": 82,
  ".[": 83,
  ".[1": 84,
  ".[10": 85,
  ".[11": 86,
  ".[12": 87,
  ".[13": 88,
  ".[14": 89,
  ".[15": 90,
  ".[2": 91,
  ".[3": 92,
  ".[4": 93,
  ".[5": 94,
  ".[7": 95,
  ".[8": 96,
  ".[9": 97,
  "._,</w>": 98,
  "._</w>": 99,
  "0": 100,
  "0).</w>": 101,
  "0,</w>": 102,
  "0.</w>": 103,
  "0</w>": 104,
  "0]</w>": 105,
  "1": 106,
  "1).</w>": 107,
  "1.</w>": 108,
  "10": 109,
  "100</w>": 110,
  "10</w>": 111,
  "11": 112,
  "110</w>": 113,
  "112": 114,
  "12": 115,
  "120</w>": 116,
  "124": 117,
  "126": 118,
  "127": 119,
  "128": 120,
  "129": 121,
  "12]</w>": 122,
  "13": 123,
  "130": 124,
  "1300": 125,
  "1300,</w>": 126,
  "1300</w>": 127,
  "1301": 128,
  "1301</w>": 129,
  "130</w>": 130,
  "1314": 131,
  "132": 132,
  "1326": 133,
  "13]</w>": 134,
  "14": 135,
  "140</w>": 136,
  "15": 137,
  "16": 138,
  "18": 139,
  "1</w>": 140,
  "1]</w>": 141,
  "2": 142,
  "2).</w>": 143,
  "2,</w>": 144,
  "2.</w>": 145,
  "20</w>": 146,
  "23": 147,
  "25": 148,
  "25th</w>": 149,
  "26": 150,
  "2</w>": 151,
  "2]</w>": 152,
  "3": 153,
  "3.</w>": 154,
  "30</w>": 155,
  "3</w>": 156,
  "3]</w>": 157,
  "4": 158,
  "4.</w>": 159,
  "40</w>": 160,
  "44]</w>": 161,
  "4</w>": 162,
  "4]</w>": 163,
  "5": 164,
  "5).</w>": 165,
  "5,</w>": 166,
  "5.</w>": 167,
  "50</w>": 168,
  "51.</w>": 169,
  "5</w>": 170,
  "5]</w>": 171,
  "6": 172,
  "6).</w>": 173,
  "6,</w>": 174,
  "6.</w>": 175,
  "60</w>": 176,
  "6]</w>": 177,
  "7": 178,
  "7).</w>": 179,
  "7.</w>": 180,
  "70</w>": 181,
  "7</w>": 182,
  "7]</w>": 183,
  "8": 184,
  "8).</w>": 185,
  "8,</w>": 186,
  "8.</w>": 187,
  "80</w>": 188,
  "8</w>": 189,
  "8]</w>": 190,
  "9": 191,
  "9).</w>": 192,
  "9,</w>": 193,
  "9.</w>": 194,
  "90</w>": 195,
  "9</w>": 196,
  "9]</w>": 197,
  ":": 198,
  ":--": 199,
  ":</w>": 200,
  ";": 201,
  ";'</w>": 202,
  ";</w>": 203,
  "</w>": 204,
  "?": 205,
  "?'</w>": 206,
  "?</w>": 207,
  "A": 208,
  "A</w>": 209,
  "AN": 210,
  "ANT": 211,
  "Ab": 212,
  "Abbo": 213,
  "Acc": 214,
  "According</w>": 215,
  "Acher": 216,
  "Acqu": 217,
  "Af": 218,
  "After</w>": 219,
  "Ah,</w>": 220,
  "Al": 221,
  "Alber": 222,
  "Alessi": 223,
  "Alessio</w>": 224,
  "Alig": 225,
  "Alighier": 226,
  "Alighieri,</w>": 227,
  "All</w>": 228,
  "Already</w>": 229,
  "Although</w>": 230,
  "Among</w>": 231,
  "An": 232,
  "An</w>": 233,
  "Anast": 234,
  "Anastasi": 235,
  "And,</w>": 236,
  "And</w>": 237,
  "Andre": 238,
  "Anj": 239,
  "Anjou": 240,
  "Anjou</w>": 241,
  "Ar": 242,
  "Arbi": 243,
  "Are": 244,
  "Are</w>": 245,
  "Arezz": 246,
  "Arist": 247,
  "Aristot": 248,
  "Aristotle,</w>": 249,
  "Arno": 250,
  "Art</w>": 251,
  "As": 252,
  "As,</w>": 253,
  "As</w>": 254,
  "At</w>": 255,
  "Au": 256,
  "August": 257,
  "August</w>": 258,
  "B": 259,
  "Bar": 260,
  "Barbar": 261,
  "Be": 262,
  "Beatri": 263,
  "Beatric": 264,
  "Beatrice,</w>": 265,
  "Beatrice.</w>": 266,
  "Beatrice</w>": 267,
  "Bec": 268,
  "Beca": 269,
  "Because</w>": 270,
  "Before</w>": 271,
  "Beg": 272,
  "Bel": 273,
  "Bell": 274,
  "Ben": 275,
  "Beneath</w>": 276,
  "Benedic": 277,
  "Benven": 278,
  "Benvenu": 279,
  "Benvenuto</w>": 280,
  "Bish": 281,
  "Bl": 282,
  "Blacks</w>": 283,
  "Bo": 284,
  "Bocc": 285,
  "Boccacci": 286,
  "Boccaccio,</w>": 287,
  "Boccaccio</w>": 288,
  "Boeth": 289,
  "Boethi": 290,
  "Bol": 291,
  "Bolgi": 292,
  "Bolgia,</w>": 293,
  "Bolgia</w>": 294,
  "Bologn": 295,
  "Bologna,</w>": 296,
  "Bologna</w>": 297,
  "Bolognese</w>": 298,
  "Boni": 299,
  "Boniface,</w>": 300,
  "Boniface</w>": 301,
  "Bor": 302,
  "Both</w>": 303,
  "Br": 304,
  "Brun": 305,
  "Brunet": 306,
  "Brunetto</w>": 307,
  "Bu": 308,
  "Bur": 309,
  "But,</w>": 310,
  "But</w>": 311,
  "By</w>": 312,
  "C": 313,
  "CANT": 314,
  "CANTO</w>": 315,
  "Ca": 316,
  "Cacci": 317,
  "Cal": 318,
  "Camp": 319,
  "Campaldin": 320,
  "Can": 321,
  "Can</w>": 322,
  "Cant": 323,
  "Canto</w>": 324,
  "Cap": 325,
  "Capane": 326,
  "Captain</w>": 327,
  "Cardin": 328,
  "Cardinal": 329,
  "Cardinal</w>": 330,
  "Cas": 331,
  "Cast": 332,
  "Caval": 333,
  "Cavalcan": 334,
  "Cavalcanti</w>": 335,
  "Cec": 336,
  "Celest": 337,
  "Cent": 338,
  "Centa": 339,
  "Cer": 340,
  "Cerber": 341,
  "Cerchi": 342,
  "Ch": 343,
  "Cha": 344,
  "Char": 345,
  "Charles,</w>": 346,
  "Charles</w>": 347,
  "Chi": 348,
  "Chr": 349,
  "Christ": 350,
  "Christ</w>": 351,
  "Christend": 352,
  "Christian</w>": 353,
  "Chur": 354,
  "Church</w>": 355,
  "Ci": 356,
  "Ciacc": 357,
  "Ciacco</w>": 358,
  "Circ": 359,
  "Circle,</w>": 360,
  "Circle--": 361,
  "Circle.</w>": 362,
  "Circle</w>": 363,
  "Clement</w>": 364,
  "Coc": 365,
  "Cocy": 366,
  "Cocyt": 367,
  "Com": 368,
  "Common": 369,
  "Commonweal": 370,
  "Commonwealth</w>": 371,
  "Con": 372,
  "Const": 373,
  "Constant": 374,
  "Cor": 375,
  "Corso</w>": 376,
  "Coun": 377,
  "Cour": 378,
  "Court</w>": 379,
  "Cæs": 380,
  "D": 381,
  "Dant": 382,
  "Dante": 383,
  "Dante's</w>": 384,
  "Dante,</w>": 385,
  "Dante-": 386,
  "Dante-For": 387,
  "Dante-Forsch": 388,
  "Dante-Forschun": 389,
  "Dante-Forschungen": 390,
  "Dante-Forschungen_,</w>": 391,
  "Dante.</w>": 392,
  "Dante;</w>": 393,
  "Dante</w>": 394,
  "De": 395,
  "Del": 396,
  "Dem": 397,
  "Dis": 398,
  "Div": 399,
  "Divine</w>": 400,
  "Do</w>": 401,
  "Donat": 402,
  "Donati,</w>": 403,
  "Donati</w>": 404,
  "Down</w>": 405,
  "Du": 406,
  "Duke</w>": 407,
  "E": 408,
  "Each</w>": 409,
  "Ear": 410,
  "Eigh": 411,
  "Eighth</w>": 412,
  "El": 413,
  "Em": 414,
  "Emp": 415,
  "Emper": 416,
  "Emperor": 417,
  "Emperor's</w>": 418,
  "Emperor,</w>": 419,
  "Emperor</w>": 420,
  "Empire,</w>": 421,
  "Empire</w>": 422,
  "En": 423,
  "Engl": 424,
  "Epic": 425,
  "Epicure": 426,
  "Ere</w>": 427,
  "Escor": 428,
  "Escort</w>": 429,
  "Eur": 430,
  "Europ": 431,
  "Even</w>": 432,
  "Evil</w>": 433,
  "F": 434,
  "FO": 435,
  "FOOT": 436,
  "FOOTN": 437,
  "FOOTNOT": 438,
  "FOOTNOTE": 439,
  "FOOTNOTES": 440,
  "FOOTNOTES:</w>": 441,
  "Far": 442,
  "Farinat": 443,
  "Farinata's</w>": 444,
  "Farinata,</w>": 445,
  "Farinata</w>": 446,
  "Fel": 447,
  "Fif": 448,
  "Fifth</w>": 449,
  "Fir": 450,
  "First</w>": 451,
  "Flor": 452,
  "Florenc": 453,
  "Florence": 454,
  "Florence,</w>": 455,
  "Florence.</w>": 456,
  "Florence;</w>": 457,
  "Florence</w>": 458,
  "Florence_,</w>": 459,
  "Florent": 460,
  "Florentin": 461,
  "Florentine</w>": 462,
  "Florentines,</w>": 463,
  "Florentines</w>": 464,
  "For": 465,
  "For</w>": 466,
  "Fortun": 467,
  "Fortune</w>": 468,
  "Fourth</w>": 469,
  "Fr": 470,
  "Franc": 471,
  "Francesc": 472,
  "Francesca,</w>": 473,
  "Francesca</w>": 474,
  "Fre": 475,
  "Freder": 476,
  "Frederic": 477,
  "Frederick": 478,
  "Frederick's</w>": 479,
  "Frederick</w>": 480,
  "Fren": 481,
  "French</w>": 482,
  "Frid": 483,
  "Friday</w>": 484,
  "From</w>": 485,
  "G": 486,
  "Gal": 487,
  "Gala": 488,
  "Gem": 489,
  "Gemm": 490,
  "Gen": 491,
  "Geno": 492,
  "Ger": 493,
  "German": 494,
  "German</w>": 495,
  "Gery": 496,
  "Geryon</w>": 497,
  "Ghi": 498,
  "Ghibel": 499,
  "Ghibelin": 500,
  "Ghibeline</w>": 501,
  "Ghibelines,</w>": 502,
  "Ghibelines</w>": 503,
  "Gi": 504,
  "Giot": 505,
  "Giotto's</w>": 506,
  "Giotto,</w>": 507,
  "Giotto</w>": 508,
  "Go": 509,
  "God": 510,
  "God's</w>": 511,
  "God,</w>": 512,
  "God</w>": 513,
  "Gr": 514,
  "Gran": 515,
  "Grand": 516,
  "Gre": 517,
  "Great</w>": 518,
  "Gree": 519,
  "Gu": 520,
  "Guel": 521,
  "Guelf": 522,
  "Guelf</w>": 523,
  "Guelfa": 524,
  "Guelfs</w>": 525,
  "Guid": 526,
  "Guide,</w>": 527,
  "Guide</w>": 528,
  "Guido": 529,
  "Guido</w>": 530,
  "H": 531,
  "Had</w>": 532,
  "Har": 533,
  "He": 534,
  "He,</w>": 535,
  "He</w>": 536,
  "Heaven": 537,
  "Heaven's</w>": 538,
  "Heaven</w>": 539,
  "Hell": 540,
  "Hell,</w>": 541,
  "Hell</w>": 542,
  "Hen": 543,
  "Hence</w>": 544,
  "Henry</w>": 545,
  "Her": 546,
  "Her</w>": 547,
  "Here</w>": 548,
  "Hi": 549,
  "Him</w>": 550,
  "His</w>": 551,
  "Hoh": 552,
  "Hohen": 553,
  "Hohenst": 554,
  "Hohenstau": 555,
  "Hohenstauf": 556,
  "Hol": 557,
  "Holy</w>": 558,
  "How": 559,
  "How</w>": 560,
  "I": 561,
  "I,</w>": 562,
  "I.</w>": 563,
  "I:</w>": 564,
  "I</w>": 565,
  "II": 566,
  "II.,</w>": 567,
  "II.</w>": 568,
  "III": 569,
  "III.</w>": 570,
  "IV.</w>": 571,
  "IX.</w>": 572,
  "If</w>": 573,
  "Im": 574,
  "Imperi": 575,
  "Imperial": 576,
  "Imperial</w>": 577,
  "Imperialist</w>": 578,
  "In": 579,
  "In</w>": 580,
  "Inf": 581,
  "Infer": 582,
  "Inferno": 583,
  "Inferno,</w>": 584,
  "Inferno.</w>": 585,
  "Inferno</w>": 586,
  "Into</w>": 587,
  "Is</w>": 588,
  "It</w>": 589,
  "Ital": 590,
  "Italian": 591,
  "Italian,</w>": 592,
  "Italian</w>": 593,
  "Italy,</w>": 594,
  "Italy.</w>": 595,
  "Italy</w>": 596,
  "Its</w>": 597,
  "J": 598,
  "J.</w>": 599,
  "Jac": 600,
  "Jacop": 601,
  "Jan": 602,
  "Jer": 603,
  "Joh": 604,
  "John": 605,
  "John</w>": 606,
  "Jud": 607,
  "Juli": 608,
  "June</w>": 609,
  "Just": 610,
  "Justice</w>": 611,
  "K": 612,
  "Ke": 613,
  "King</w>": 614,
  "L": 615,
  "Lad": 616,
  "Lat": 617,
  "Latin": 618,
  "Latin.</w>": 619,
  "Latini,</w>": 620,
  "Latini</w>": 621,
  "Le": 622,
  "Lead": 623,
  "Leader</w>": 624,
  "Let</w>": 625,
  "Li": 626,
  "Like</w>": 627,
  "Lim": 628,
  "Lomb": 629,
  "Lombard</w>": 630,
  "Lor": 631,
  "Lord</w>": 632,
  "Lu": 633,
  "Luc": 634,
  "Lucc": 635,
  "Lucca,</w>": 636,
  "Lucca</w>": 637,
  "Lucch": 638,
  "Luci": 639,
  "M": 640,
  "Mal": 641,
  "Male": 642,
  "Malebol": 643,
  "Man": 644,
  "Manfr": 645,
  "Manfre": 646,
  "Manfred,</w>": 647,
  "Manfred</w>": 648,
  "Mant": 649,
  "Mantu": 650,
  "Mar": 651,
  "March</w>": 652,
  "Marqu": 653,
  "Mast": 654,
  "Master": 655,
  "Master,</w>": 656,
  "Master</w>": 657,
  "Mat": 658,
  "Matil": 659,
  "May</w>": 660,
  "Me</w>": 661,
  "Med": 662,
  "Mich": 663,
  "Midd": 664,
  "Middle</w>": 665,
  "Mil": 666,
  "Min": 667,
  "Minos</w>": 668,
  "Mo": 669,
  "Mon": 670,
  "Monarchi": 671,
  "Monarchia_</w>": 672,
  "Mont": 673,
  "Montap": 674,
  "Montaper": 675,
  "Montaperti</w>": 676,
  "More</w>": 677,
  "Most</w>": 678,
  "Mr": 679,
  "Mr.</w>": 680,
  "My</w>": 681,
  "N": 682,
  "Na": 683,
  "Napl": 684,
  "Neither</w>": 685,
  "Never</w>": 686,
  "Nich": 687,
  "Nichol": 688,
  "Nicholas</w>": 689,
  "Nin": 690,
  "Ninth</w>": 691,
  "No</w>": 692,
  "Nor": 693,
  "Nor</w>": 694,
  "Not</w>": 695,
  "Nov": 696,
  "Now</w>": 697,
  "Nu": 698,
  "Nuov": 699,
  "Nuova": 700,
  "Nuova_,</w>": 701,
  "Nuova_</w>": 702,
  "O": 703,
  "O'er</w>": 704,
  "O</w>": 705,
  "OT": 706,
  "Of</w>": 707,
  "On": 708,
  "On</w>": 709,
  "One</w>": 710,
  "Only</w>": 711,
  "Or": 712,
  "Or</w>": 713,
  "Our</w>": 714,
  "Out</w>": 715,
  "P": 716,
  "Padu": 717,
  "Pap": 718,
  "Papal</w>": 719,
  "Par": 720,
  "Parad": 721,
  "Paradise</w>": 722,
  "Paris</w>": 723,
  "Past": 724,
  "Pe": 725,
  "Pen": 726,
  "Peop": 727,
  "People</w>": 728,
  "Per": 729,
  "Perr": 730,
  "Perrens,</w>": 731,
  "Pet": 732,
  "Peter's</w>": 733,
  "Peter</w>": 734,
  "Ph": 735,
  "Phi": 736,
  "Philip</w>": 737,
  "Phle": 738,
  "Phlege": 739,
  "Phlegeth": 740,
  "Phlegy": 741,
  "Pier</w>": 742,
  "Pis": 743,
  "Pisa</w>": 744,
  "Plut": 745,
  "Po": 746,
  "Podest": 747,
  "Poet</w>": 748,
  "Pol": 749,
  "Polent": 750,
  "Pop": 751,
  "Pope,</w>": 752,
  "Pope.</w>": 753,
  "Pope</w>": 754,
  "Popes</w>": 755,
  "Pr": 756,
  "Pri": 757,
  "Pro": 758,
  "Ptol": 759,
  "Ptolem": 760,
  "Purg": 761,
  "Purgator": 762,
  "Purgatory.</w>": 763,
  "Purgatory</w>": 764,
  "Q": 765,
  "Qu": 766,
  "Queen</w>": 767,
  "R": 768,
  "Raven": 769,
  "Ravenn": 770,
  "Ravenna.</w>": 771,
  "Re": 772,
  "Rep": 773,
  "Republic": 774,
  "Republic</w>": 775,
  "Rob": 776,
  "Rom": 777,
  "Romagn": 778,
  "Roman</w>": 779,
  "Rome,</w>": 780,
  "Rome</w>": 781,
  "Rusticucci": 782,
  "S": 783,
  "Saint</w>": 784,
  "Sant": 785,
  "Santa</w>": 786,
  "Sat": 787,
  "Satur": 788,
  "Save</w>": 789,
  "Sc": 790,
  "Se": 791,
  "Second</w>": 792,
  "See": 793,
  "See</w>": 794,
  "Ser": 795,
  "Sev": 796,
  "Seventh</w>": 797,
  "Sh": 798,
  "She</w>": 799,
  "Si": 800,
  "Sic": 801,
  "Sicil": 802,
  "Sicilian</w>": 803,
  "Sicily</w>": 804,
  "Sien": 805,
  "Siena,</w>": 806,
  "Siena</w>": 807,
  "Sim": 808,
  "Sixth</w>": 809,
  "Sl": 810,
  "So": 811,
  "So</w>": 812,
  "Some</w>": 813,
  "Sp": 814,
  "St": 815,
  "St.</w>": 816,
  "State</w>": 817,
  "Still</w>": 818,
  "Sty": 819,
  "Su": 820,
  "Such</w>": 821,
  "T": 822,
  "Th": 823,
  "Than</w>": 824,
  "That</w>": 825,
  "The": 826,
  "The</w>": 827,
  "Their</w>": 828,
  "Then,</w>": 829,
  "Then</w>": 830,
  "There</w>": 831,
  "Therefore</w>": 832,
  "These</w>": 833,
  "They</w>": 834,
  "Thi": 835,
  "Thir": 836,
  "Third</w>": 837,
  "This</w>": 838,
  "Those</w>": 839,
  "Thou</w>": 840,
  "Though</w>": 841,
  "Through</w>": 842,
  "Thus</w>": 843,
  "Thy</w>": 844,
  "Till</w>": 845,
  "To</w>": 846,
  "Tow": 847,
  "Tr": 848,
  "Tro": 849,
  "Tur": 850,
  "Tus": 851,
  "Tusc": 852,
  "Tuscan": 853,
  "Tuscan</w>": 854,
  "Tuscany.</w>": 855,
  "Tuscany</w>": 856,
  "U": 857,
  "Uber": 858,
  "Ugu": 859,
  "Uguc": 860,
  "Ugucci": 861,
  "Un": 862,
  "Until</w>": 863,
  "Unto</w>": 864,
  "Up": 865,
  "Upon</w>": 866,
  "V": 867,
  "V.</w>": 868,
  "VI.</w>": 869,
  "VII.</w>": 870,
  "VIII.</w>": 871,
  "Valo": 872,
  "Valois</w>": 873,
  "Vas": 874,
  "Ven": 875,
  "Venice</w>": 876,
  "Veron": 877,
  "Verona,</w>": 878,
  "Vi": 879,
  "Vic": 880,
  "Vier": 881,
  "Vieri</w>": 882,
  "Villan": 883,
  "Villani,</w>": 884,
  "Villani</w>": 885,
  "Viol": 886,
  "Vir": 887,
  "Virg": 888,
  "Virgi": 889,
  "Virgil": 890,
  "Virgil's</w>": 891,
  "Virgil,</w>": 892,
  "Virgil.</w>": 893,
  "Virgil</w>": 894,
  "Vit": 895,
  "Vita</w>": 896,
  "W": 897,
  "Was</w>": 898,
  "We</w>": 899,
  "Were</w>": 900,
  "West": 901,
  "Wh": 902,
  "What</w>": 903,
  "Whe": 904,
  "When</w>": 905,
  "Whence</w>": 906,
  "Where</w>": 907,
  "Wherefore</w>": 908,
  "Whereon</w>": 909,
  "Whether</w>": 910,
  "Whi": 911,
  "Which</w>": 912,
  "While</w>": 913,
  "Whit": 914,
  "Whites,</w>": 915,
  "Whites</w>": 916,
  "Who</w>": 917,
  "Whose</w>": 918,
  "Why</w>": 919,
  "Wi": 920,
  "With</w>": 921,
  "Within</w>": 922,
  "Witt": 923,
  "X": 924,
  "X.</w>": 925,
  "XX": 926,
  "Y": 927,
  "Yet</w>": 928,
  "Z": 929,
  "[": 930,
  "[1": 931,
  "[10": 932,
  "[11": 933,
  "[12": 934,
  "[13": 935,
  "[14": 936,
  "[15": 937,
  "[16": 938,
  "[17": 939,
  "[18": 940,
  "[19": 941,
  "[2": 942,
  "[20": 943,
  "[21": 944,
  "[22": 945,
  "[23": 946,
  "[24": 947,
  "[25": 948,
  "[26": 949,
  "[27": 950,
  "[28": 951,
  "[29": 952,
  "[3": 953,
  "[30": 954,
  "[31": 955,
  "[32": 956,
  "[33": 957,
  "[34": 958,
  "[35": 959,
  "[36": 960,
  "[37": 961,
  "[38": 962,
  "[39": 963,
  "[4": 964,
  "[40": 965,
  "[41": 966,
  "[42": 967,
  "[43": 968,
  "[44": 969,
  "[45": 970,
  "[46": 971,
  "[47": 972,
  "[48": 973,
  "[49": 974,
  "[5": 975,
  "[50": 976,
  "[51": 977,
  "[52": 978,
  "[53": 979,
  "[54": 980,
  "[55": 981,
  "[56": 982,
  "[57": 983,
  "[58": 984,
  "[59": 985,
  "[6": 986,
  "[7": 987,
  "[8": 988,
  "[9": 989,
  "]": 990,
  "]</w>": 991,
  "^": 992,
  "_": 993,
  "_,</w>": 994,
  "_--": 995,
  "_.</w>": 996,
  "_:</w>": 997,
  "_;</w>": 998,
  "_</w>": 999,
  "_A": 1000,
  "_A</w>": 1001,
  "_C": 1002,
  "_Comedy": 1003,
  "_Comedy_,</w>": 1004,
  "_Comedy_.</w>": 1005,
  "_Comedy_</w>": 1006,
  "_Con": 1007,
  "_Convit": 1008,
  "_Convito_,</w>": 1009,
  "_Convito_</w>": 1010,
  "_Cronic": 1011,
  "_Cronica_,</w>": 1012,
  "_D": 1013,
  "_De</w>": 1014,
  "_E": 1015,
  "_H": 1016,
  "_In</w>": 1017,
  "_Inf": 1018,
  "_Inf._</w>": 1019,
  "_Infer": 1020,
  "_Inferno": 1021,
  "_Inferno_.</w>": 1022,
  "_Inferno_</w>": 1023,
  "_L": 1024,
  "_M": 1025,
  "_My</w>": 1026,
  "_N": 1027,
  "_O": 1028,
  "_P": 1029,
  "_Par": 1030,
  "_Parad": 1031,
  "_Parad._</w>": 1032,
  "_Paradis": 1033,
  "_Paradiso_</w>": 1034,
  "_Parte</w>": 1035,
  "_Purg": 1036,
  "_Purg._</w>": 1037,
  "_Purgator": 1038,
  "_Purgatori": 1039,
  "_Purgatorio_</w>": 1040,
  "_R": 1041,
  "_S": 1042,
  "_T": 1043,
  "_Tes": 1044,
  "_Tesor": 1045,
  "_That</w>": 1046,
  "_The</w>": 1047,
  "_Thy</w>": 1048,
  "_To</w>": 1049,
  "_Vita</w>": 1050,
  "_W": 1051,
  "_Y": 1052,
  "_e.g": 1053,
  "_Æne": 1054,
  "_Æneid": 1055,
  "a": 1056,
  "a's</w>": 1057,
  "a,</w>": 1058,
  "a--": 1059,
  "a.</w>": 1060,
  "a;</w>": 1061,
  "a</w>": 1062,
  "a_,</w>": 1063,
  "a_:</w>": 1064,
  "a_</w>": 1065,
  "ab": 1066,
  "abilit": 1067,
  "abl": 1068,
  "able,</w>": 1069,
  "able.</w>": 1070,
  "able</w>": 1071,
  "ably</w>": 1072,
  "abo": 1073,
  "abode</w>": 1074,
  "about</w>": 1075,
  "abov": 1076,
  "above</w>": 1077,
  "abs": 1078,
  "absence</w>": 1079,
  "absol": 1080,
  "abys": 1081,
  "ac": 1082,
  "acc": 1083,
  "accep": 1084,
  "acch": 1085,
  "acci": 1086,
  "accompl": 1087,
  "according</w>": 1088,
  "accoun": 1089,
  "account</w>": 1090,
  "ace,</w>": 1091,
  "ace</w>": 1092,
  "ach": 1093,
  "ach</w>": 1094,
  "ached</w>": 1095,
  "ack": 1096,
  "ack</w>": 1097,
  "acks</w>": 1098,
  "acqu": 1099,
  "acquain": 1100,
  "acquaint": 1101,
  "acr": 1102,
  "across</w>": 1103,
  "act</w>": 1104,
  "acted</w>": 1105,
  "action</w>": 1106,
  "active</w>": 1107,
  "acy,</w>": 1108,
  "acy</w>": 1109,
  "ad": 1110,
  "ad</w>": 1111,
  "add": 1112,
  "addres": 1113,
  "addressed</w>": 1114,
  "ade</w>": 1115,
  "aded</w>": 1116,
  "adm": 1117,
  "adop": 1118,
  "adopted</w>": 1119,
  "ador": 1120,
  "adu": 1121,
  "adv": 1122,
  "advanc": 1123,
  "advance</w>": 1124,
  "advant": 1125,
  "advantage</w>": 1126,
  "adverse</w>": 1127,
  "ael</w>": 1128,
  "af": 1129,
  "aff": 1130,
  "affair": 1131,
  "affairs.</w>": 1132,
  "affairs</w>": 1133,
  "affected</w>": 1134,
  "affor": 1135,
  "after": 1136,
  "after</w>": 1137,
  "afterwards</w>": 1138,
  "ag": 1139,
  "again": 1140,
  "again,</w>": 1141,
  "again</w>": 1142,
  "against</w>": 1143,
  "age,</w>": 1144,
  "age.</w>": 1145,
  "age</w>": 1146,
  "aged</w>": 1147,
  "ages,</w>": 1148,
  "ages</w>": 1149,
  "agg": 1150,
  "aggi": 1151,
  "agn": 1152,
  "agre": 1153,
  "agrees</w>": 1154,
  "agu": 1155,
  "ai": 1156,
  "aid": 1157,
  "aid</w>": 1158,
  "ail": 1159,
  "ail</w>": 1160,
  "ails</w>": 1161,
  "aim": 1162,
  "aim</w>": 1163,
  "ain": 1164,
  "ain,</w>": 1165,
  "ain.</w>": 1166,
  "ain</w>": 1167,
  "ained</w>": 1168,
  "ains</w>": 1169,
  "aint</w>": 1170,
  "air": 1171,
  "air</w>": 1172,
  "ak": 1173,
  "ake</w>": 1174,
  "akes</w>": 1175,
  "aks</w>": 1176,
  "al": 1177,
  "al,</w>": 1178,
  "al.</w>": 1179,
  "al</w>": 1180,
  "aldin": 1181,
  "ality</w>": 1182,
  "all": 1183,
  "all,</w>": 1184,
  "all.</w>": 1185,
  "all</w>": 1186,
  "alle": 1187,
  "alled</w>": 1188,
  "alleg": 1189,
  "allegor": 1190,
  "allegorical</w>": 1191,
  "alli": 1192,
  "allies</w>": 1193,
  "allowed</w>": 1194,
  "ally,</w>": 1195,
  "ally</w>": 1196,
  "almost</w>": 1197,
  "alo": 1198,
  "alone": 1199,
  "alone,</w>": 1200,
  "alone</w>": 1201,
  "along</w>": 1202,
  "already</w>": 1203,
  "als</w>": 1204,
  "also</w>": 1205,
  "alt</w>": 1206,
  "although</w>": 1207,
  "alty</w>": 1208,
  "always</w>": 1209,
  "am": 1210,
  "am</w>": 1211,
  "amb": 1212,
  "ambition": 1213,
  "ambition</w>": 1214,
  "ame</w>": 1215,
  "ames</w>": 1216,
  "amon": 1217,
  "among</w>": 1218,
  "amp": 1219,
  "ample</w>": 1220,
  "an": 1221,
  "an,</w>": 1222,
  "an</w>": 1223,
  "anc": 1224,
  "ance": 1225,
  "ance,</w>": 1226,
  "ance.</w>": 1227,
  "ance</w>": 1228,
  "ances</w>": 1229,
  "ancest": 1230,
  "anci": 1231,
  "ancient</w>": 1232,
  "and": 1233,
  "and,</w>": 1234,
  "and.</w>": 1235,
  "and</w>": 1236,
  "ands</w>": 1237,
  "ane": 1238,
  "ang": 1239,
  "ange</w>": 1240,
  "angel": 1241,
  "angels</w>": 1242,
  "angr": 1243,
  "angry</w>": 1244,
  "angu": 1245,
  "anim": 1246,
  "ank": 1247,
  "ank</w>": 1248,
  "ann": 1249,
  "anni</w>": 1250,
  "another": 1251,
  "another,</w>": 1252,
  "another</w>": 1253,
  "ans</w>": 1254,
  "answ": 1255,
  "answer</w>": 1256,
  "answered</w>": 1257,
  "answers</w>": 1258,
  "ant": 1259,
  "ant,</w>": 1260,
  "ant</w>": 1261,
  "anti": 1262,
  "anticip": 1263,
  "anting</w>": 1264,
  "antly</w>": 1265,
  "ants</w>": 1266,
  "any</w>": 1267,
  "anything</w>": 1268,
  "ap": 1269,
  "ap</w>": 1270,
  "app": 1271,
  "appe": 1272,
  "appeal</w>": 1273,
  "appear": 1274,
  "appear</w>": 1275,
  "appearance</w>": 1276,
  "appeared</w>": 1277,
  "appears</w>": 1278,
  "appointed</w>": 1279,
  "appro": 1280,
  "ar": 1281,
  "ar.</w>": 1282,
  "ar</w>": 1283,
  "arad": 1284,
  "arch</w>": 1285,
  "archi": 1286,
  "ard": 1287,
  "ard</w>": 1288,
  "ardi": 1289,
  "ardin": 1290,
  "ards</w>": 1291,
  "are,</w>": 1292,
  "are</w>": 1293,
  "ari</w>": 1294,
  "aris": 1295,
  "arm": 1296,
  "armed</w>": 1297,
  "arms,</w>": 1298,
  "arms</w>": 1299,
  "around</w>": 1300,
  "arr": 1301,
  "arriv": 1302,
  "arrog": 1303,
  "art": 1304,
  "art,</w>": 1305,
  "art</w>": 1306,
  "arti": 1307,
  "artist": 1308,
  "arts</w>": 1309,
  "ary,</w>": 1310,
  "ary</w>": 1311,
  "as": 1312,
  "as,</w>": 1313,
  "as</w>": 1314,
  "asc": 1315,
  "ase</w>": 1316,
  "ased</w>": 1317,
  "ash": 1318,
  "ash</w>": 1319,
  "asi": 1320,
  "ask": 1321,
  "asked</w>": 1322,
  "asks</w>": 1323,
  "ason": 1324,
  "asp": 1325,
  "aspect</w>": 1326,
  "ass": 1327,
  "ass</w>": 1328,
  "assa": 1329,
  "asser": 1330,
  "assi": 1331,
  "assigned</w>": 1332,
  "associ": 1333,
  "associated</w>": 1334,
  "assu": 1335,
  "assume</w>": 1336,
  "ast": 1337,
  "ast,</w>": 1338,
  "ast.</w>": 1339,
  "ast</w>": 1340,
  "astic</w>": 1341,
  "astr": 1342,
  "astron": 1343,
  "astronom": 1344,
  "asts</w>": 1345,
  "at": 1346,
  "at,</w>": 1347,
  "at.</w>": 1348,
  "at</w>": 1349,
  "ate": 1350,
  "ate,</w>": 1351,
  "ate</w>": 1352,
  "ated</w>": 1353,
  "ately</w>": 1354,
  "ater</w>": 1355,
  "ates</w>": 1356,
  "atever</w>": 1357,
  "ath": 1358,
  "ath</w>": 1359,
  "atic": 1360,
  "atic</w>": 1361,
  "ating</w>": 1362,
  "ation": 1363,
  "ation,</w>": 1364,
  "ation.</w>": 1365,
  "ation</w>": 1366,
  "ations</w>": 1367,
  "ativ": 1368,
  "ative</w>": 1369,
  "ator": 1370,
  "ator</w>": 1371,
  "atory</w>": 1372,
  "atri": 1373,
  "ats</w>": 1374,
  "att": 1375,
  "attached</w>": 1376,
  "attemp": 1377,
  "attempt</w>": 1378,
  "atten": 1379,
  "attention</w>": 1380,
  "attered</w>": 1381,
  "attribut": 1382,
  "ature": 1383,
  "ature</w>": 1384,
  "atures</w>": 1385,
  "au": 1386,
  "aud": 1387,
  "aud</w>": 1388,
  "aught": 1389,
  "aughter</w>": 1390,
  "aul": 1391,
  "aut": 1392,
  "auth": 1393,
  "author": 1394,
  "author</w>": 1395,
  "authority</w>": 1396,
  "av": 1397,
  "avail": 1398,
  "aval": 1399,
  "avar": 1400,
  "ave</w>": 1401,
  "aven": 1402,
  "aven</w>": 1403,
  "aves</w>": 1404,
  "aving</w>": 1405,
  "aw": 1406,
  "aw</w>": 1407,
  "aware</w>": 1408,
  "away</w>": 1409,
  "awful</w>": 1410,
  "ay": 1411,
  "ay,</w>": 1412,
  "ay.</w>": 1413,
  "ay;</w>": 1414,
  "ay</w>": 1415,
  "ayed,</w>": 1416,
  "ayed.</w>": 1417,
  "ayed</w>": 1418,
  "ays</w>": 1419,
  "az": 1420,
  "azz": 1421,
  "b": 1422,
  "b</w>": 1423,
  "back": 1424,
  "back.</w>": 1425,
  "back</w>": 1426,
  "backward</w>": 1427,
  "bad</w>": 1428,
  "bade</w>": 1429,
  "ban": 1430,
  "banish": 1431,
  "banished</w>": 1432,
  "banishment</w>": 1433,
  "bank": 1434,
  "bank</w>": 1435,
  "banks</w>": 1436,
  "bap": 1437,
  "bapti": 1438,
  "baptized</w>": 1439,
  "bar": 1440,
  "barr": 1441,
  "barri": 1442,
  "base</w>": 1443,
  "batt": 1444,
  "battle</w>": 1445,
  "be": 1446,
  "be,</w>": 1447,
  "be.</w>": 1448,
  "be</w>": 1449,
  "bear": 1450,
  "bear</w>": 1451,
  "bears</w>": 1452,
  "beasts</w>": 1453,
  "beau": 1454,
  "beaut": 1455,
  "beauti": 1456,
  "beautiful</w>": 1457,
  "beauty</w>": 1458,
  "became</w>": 1459,
  "because</w>": 1460,
  "become</w>": 1461,
  "bed</w>": 1462,
  "been.</w>": 1463,
  "been</w>": 1464,
  "before</w>": 1465,
  "beg": 1466,
  "began</w>": 1467,
  "begin": 1468,
  "begin</w>": 1469,
  "beginning</w>": 1470,
  "begu": 1471,
  "begun</w>": 1472,
  "beh": 1473,
  "beheld</w>": 1474,
  "behind</w>": 1475,
  "behold</w>": 1476,
  "beholding</w>": 1477,
  "being</w>": 1478,
  "bel": 1479,
  "beli": 1480,
  "belief": 1481,
  "belief</w>": 1482,
  "believ": 1483,
  "believe</w>": 1484,
  "believed</w>": 1485,
  "bell": 1486,
  "belong": 1487,
  "belonged</w>": 1488,
  "beloved</w>": 1489,
  "below,</w>": 1490,
  "below</w>": 1491,
  "ben": 1492,
  "beneath</w>": 1493,
  "bent,</w>": 1494,
  "bent</w>": 1495,
  "ber": 1496,
  "bes": 1497,
  "beside</w>": 1498,
  "besides</w>": 1499,
  "best": 1500,
  "best</w>": 1501,
  "bet": 1502,
  "betr": 1503,
  "better</w>": 1504,
  "between</w>": 1505,
  "beyon": 1506,
  "beyond</w>": 1507,
  "bi": 1508,
  "bid": 1509,
  "biograp": 1510,
  "biograph": 1511,
  "bir": 1512,
  "birth</w>": 1513,
  "bit": 1514,
  "bitter</w>": 1515,
  "bl": 1516,
  "black</w>": 1517,
  "blame</w>": 1518,
  "blas": 1519,
  "blasph": 1520,
  "blasphem": 1521,
  "blaz": 1522,
  "ble,</w>": 1523,
  "ble</w>": 1524,
  "bles</w>": 1525,
  "blessed</w>": 1526,
  "bling</w>": 1527,
  "blood": 1528,
  "blood</w>": 1529,
  "bo": 1530,
  "bo</w>": 1531,
  "bod": 1532,
  "bodies</w>": 1533,
  "body</w>": 1534,
  "boiling</w>": 1535,
  "bol": 1536,
  "bol</w>": 1537,
  "boo": 1538,
  "book</w>": 1539,
  "bor": 1540,
  "bore</w>": 1541,
  "born": 1542,
  "born</w>": 1543,
  "borr": 1544,
  "both</w>": 1545,
  "bott": 1546,
  "boun": 1547,
  "bound</w>": 1548,
  "bove</w>": 1549,
  "boy": 1550,
  "br": 1551,
  "bran": 1552,
  "bre": 1553,
  "brea": 1554,
  "bri": 1555,
  "brid": 1556,
  "bridge": 1557,
  "bridge</w>": 1558,
  "bright": 1559,
  "bring</w>": 1560,
  "bro": 1561,
  "broken</w>": 1562,
  "broo": 1563,
  "brook</w>": 1564,
  "brother</w>": 1565,
  "brought</w>": 1566,
  "brut": 1567,
  "bu": 1568,
  "buil": 1569,
  "built</w>": 1570,
  "bul": 1571,
  "bur": 1572,
  "burgh": 1573,
  "buried</w>": 1574,
  "burn": 1575,
  "burst</w>": 1576,
  "bus": 1577,
  "but</w>": 1578,
  "by</w>": 1579,
  "c": 1580,
  "ca": 1581,
  "ca.</w>": 1582,
  "cal": 1583,
  "cal</w>": 1584,
  "call": 1585,
  "call</w>": 1586,
  "called</w>": 1587,
  "cam": 1588,
  "came,</w>": 1589,
  "came</w>": 1590,
  "can": 1591,
  "can</w>": 1592,
  "cannot</w>": 1593,
  "canz": 1594,
  "cap": 1595,
  "car": 1596,
  "care": 1597,
  "care</w>": 1598,
  "career</w>": 1599,
  "careful</w>": 1600,
  "cas": 1601,
  "case</w>": 1602,
  "cases</w>": 1603,
  "cast": 1604,
  "cast</w>": 1605,
  "castle</w>": 1606,
  "cat": 1607,
  "cation</w>": 1608,
  "cau": 1609,
  "caus": 1610,
  "cause</w>": 1611,
  "cav": 1612,
  "caval": 1613,
  "cc": 1614,
  "ce</w>": 1615,
  "ceas": 1616,
  "cel": 1617,
  "celebr": 1618,
  "cent": 1619,
  "centre</w>": 1620,
  "centur": 1621,
  "century.</w>": 1622,
  "century</w>": 1623,
  "cer": 1624,
  "certain": 1625,
  "certain</w>": 1626,
  "certainly</w>": 1627,
  "ch": 1628,
  "ch,</w>": 1629,
  "ch.</w>": 1630,
  "ch</w>": 1631,
  "chance</w>": 1632,
  "chang": 1633,
  "change</w>": 1634,
  "changed</w>": 1635,
  "chap": 1636,
  "char": 1637,
  "charac": 1638,
  "character": 1639,
  "character</w>": 1640,
  "charge</w>": 1641,
  "charged</w>": 1642,
  "chast": 1643,
  "che": 1644,
  "chec": 1645,
  "ched</w>": 1646,
  "cher": 1647,
  "cher</w>": 1648,
  "ches</w>": 1649,
  "chi": 1650,
  "chief": 1651,
  "chief</w>": 1652,
  "chiefly</w>": 1653,
  "chil": 1654,
  "child</w>": 1655,
  "childr": 1656,
  "ching</w>": 1657,
  "cho": 1658,
  "choice</w>": 1659,
  "choos": 1660,
  "chos": 1661,
  "chur": 1662,
  "church": 1663,
  "church</w>": 1664,
  "ci": 1665,
  "cifix": 1666,
  "cil</w>": 1667,
  "cip": 1668,
  "circ": 1669,
  "circl": 1670,
  "circle": 1671,
  "circle</w>": 1672,
  "circu": 1673,
  "circum": 1674,
  "circumst": 1675,
  "circumstances</w>": 1676,
  "cit": 1677,
  "cities</w>": 1678,
  "citiz": 1679,
  "citizen": 1680,
  "citizen</w>": 1681,
  "citizens,</w>": 1682,
  "citizens.</w>": 1683,
  "citizens</w>": 1684,
  "city,</w>": 1685,
  "city.</w>": 1686,
  "city</w>": 1687,
  "civil</w>": 1688,
  "ck": 1689,
  "ck</w>": 1690,
  "cl": 1691,
  "claim": 1692,
  "claim</w>": 1693,
  "claimed</w>": 1694,
  "class": 1695,
  "class</w>": 1696,
  "classes</w>": 1697,
  "cle": 1698,
  "clear": 1699,
  "clear</w>": 1700,
  "clearly</w>": 1701,
  "clif": 1702,
  "cliff</w>": 1703,
  "clo": 1704,
  "clos": 1705,
  "close.</w>": 1706,
  "close</w>": 1707,
  "closed</w>": 1708,
  "closely</w>": 1709,
  "closes</w>": 1710,
  "clud": 1711,
  "co": 1712,
  "coast</w>": 1713,
  "col": 1714,
  "com": 1715,
  "come,</w>": 1716,
  "come.</w>": 1717,
  "come</w>": 1718,
  "comes</w>": 1719,
  "comfor": 1720,
  "coming</w>": 1721,
  "comm": 1722,
  "command": 1723,
  "command</w>": 1724,
  "comment": 1725,
  "commentary</w>": 1726,
  "commentator": 1727,
  "commentators</w>": 1728,
  "common": 1729,
  "common</w>": 1730,
  "commun": 1731,
  "communic": 1732,
  "comp": 1733,
  "compan": 1734,
  "companion": 1735,
  "companions</w>": 1736,
  "company</w>": 1737,
  "compar": 1738,
  "compared</w>": 1739,
  "compelled</w>": 1740,
  "compl": 1741,
  "complet": 1742,
  "complete</w>": 1743,
  "composed</w>": 1744,
  "con": 1745,
  "conc": 1746,
  "conceal": 1747,
  "conceiv": 1748,
  "conception</w>": 1749,
  "concer": 1750,
  "concerned</w>": 1751,
  "concerning</w>": 1752,
  "concl": 1753,
  "cond": 1754,
  "cond</w>": 1755,
  "condem": 1756,
  "condemnation</w>": 1757,
  "condemned</w>": 1758,
  "condition</w>": 1759,
  "conduc": 1760,
  "conduct</w>": 1761,
  "conf": 1762,
  "confidence</w>": 1763,
  "confir": 1764,
  "confis": 1765,
  "cons": 1766,
  "consci": 1767,
  "conscience</w>": 1768,
  "consid": 1769,
  "consider": 1770,
  "consist": 1771,
  "consists</w>": 1772,
  "consol": 1773,
  "const": 1774,
  "constitu": 1775,
  "constitution</w>": 1776,
  "consul": 1777,
  "cont": 1778,
  "contain": 1779,
  "contained</w>": 1780,
  "containing</w>": 1781,
  "contains</w>": 1782,
  "contemp": 1783,
  "contempor": 1784,
  "contemporar": 1785,
  "contemporaries</w>": 1786,
  "contemporary</w>": 1787,
  "contin": 1788,
  "continu": 1789,
  "continued--": 1790,
  "continued--the</w>": 1791,
  "continued</w>": 1792,
  "contr": 1793,
  "contro": 1794,
  "control": 1795,
  "control</w>": 1796,
  "conv": 1797,
  "conven": 1798,
  "conver": 1799,
  "converted</w>": 1800,
  "convey": 1801,
  "cop": 1802,
  "cor": 1803,
  "cord</w>": 1804,
  "coron": 1805,
  "correc": 1806,
  "correspon": 1807,
  "correspond": 1808,
  "correspondence</w>": 1809,
  "corrup": 1810,
  "cou": 1811,
  "could</w>": 1812,
  "coun": 1813,
  "count</w>": 1814,
  "counted</w>": 1815,
  "countr": 1816,
  "country</w>": 1817,
  "coup": 1818,
  "cour": 1819,
  "course,</w>": 1820,
  "course</w>": 1821,
  "court</w>": 1822,
  "courtes": 1823,
  "courtesy</w>": 1824,
  "covered</w>": 1825,
  "cqu": 1826,
  "cr": 1827,
  "cre": 1828,
  "created</w>": 1829,
  "creature": 1830,
  "cred": 1831,
  "credi": 1832,
  "cri": 1833,
  "cries</w>": 1834,
  "crim": 1835,
  "crit": 1836,
  "critic": 1837,
  "critics</w>": 1838,
  "cros": 1839,
  "cross</w>": 1840,
  "crossed</w>": 1841,
  "crow": 1842,
  "crowd</w>": 1843,
  "crown": 1844,
  "crown</w>": 1845,
  "cru": 1846,
  "crucifix": 1847,
  "cruel": 1848,
  "cruel</w>": 1849,
  "crus": 1850,
  "cry</w>": 1851,
  "cul": 1852,
  "cur": 1853,
  "curios": 1854,
  "curiosity</w>": 1855,
  "curr": 1856,
  "current</w>": 1857,
  "cut</w>": 1858,
  "d": 1859,
  "d'": 1860,
  "d,</w>": 1861,
  "d.</w>": 1862,
  "d;</w>": 1863,
  "d</w>": 1864,
  "d_:</w>": 1865,
  "da,</w>": 1866,
  "da</w>": 1867,
  "dam": 1868,
  "dang": 1869,
  "dar": 1870,
  "dark": 1871,
  "dark</w>": 1872,
  "date</w>": 1873,
  "daughter</w>": 1874,
  "day,</w>": 1875,
  "day.</w>": 1876,
  "day</w>": 1877,
  "days</w>": 1878,
  "dden</w>": 1879,
  "de": 1880,
  "de,</w>": 1881,
  "de.</w>": 1882,
  "de;</w>": 1883,
  "de</w>": 1884,
  "dea": 1885,
  "dead</w>": 1886,
  "dear</w>": 1887,
  "death,</w>": 1888,
  "death.</w>": 1889,
  "death</w>": 1890,
  "deb": 1891,
  "dec": 1892,
  "decl": 1893,
  "declar": 1894,
  "declare</w>": 1895,
  "decre": 1896,
  "ded</w>": 1897,
  "deem": 1898,
  "deep": 1899,
  "deep</w>": 1900,
  "def": 1901,
  "defe": 1902,
  "defeat</w>": 1903,
  "defin": 1904,
  "degre": 1905,
  "dei</w>": 1906,
  "del": 1907,
  "deli": 1908,
  "delic": 1909,
  "deliver": 1910,
  "delivered</w>": 1911,
  "dem": 1912,
  "demand": 1913,
  "demon": 1914,
  "demons</w>": 1915,
  "den": 1916,
  "den</w>": 1917,
  "dep": 1918,
  "depend": 1919,
  "depth</w>": 1920,
  "der": 1921,
  "der</w>": 1922,
  "deriv": 1923,
  "ders</w>": 1924,
  "des": 1925,
  "des</w>": 1926,
  "desc": 1927,
  "descend": 1928,
  "descended</w>": 1929,
  "descent</w>": 1930,
  "descri": 1931,
  "describ": 1932,
  "describe</w>": 1933,
  "described</w>": 1934,
  "describes</w>": 1935,
  "descrip": 1936,
  "description</w>": 1937,
  "deser": 1938,
  "desert</w>": 1939,
  "deserted</w>": 1940,
  "design": 1941,
  "desire</w>": 1942,
  "desp": 1943,
  "dest": 1944,
  "dest</w>": 1945,
  "destin": 1946,
  "destro": 1947,
  "det": 1948,
  "details</w>": 1949,
  "dev": 1950,
  "develop": 1951,
  "devil": 1952,
  "devo": 1953,
  "devoted</w>": 1954,
  "devotion</w>": 1955,
  "di": 1956,
  "di</w>": 1957,
  "dic": 1958,
  "did": 1959,
  "did</w>": 1960,
  "died</w>": 1961,
  "dies</w>": 1962,
  "differ": 1963,
  "difference</w>": 1964,
  "different</w>": 1965,
  "diffic": 1966,
  "difficul": 1967,
  "difficult</w>": 1968,
  "difficulty</w>": 1969,
  "dig": 1970,
  "dim</w>": 1971,
  "din": 1972,
  "ding</w>": 1973,
  "direc": 1974,
  "direct</w>": 1975,
  "directed</w>": 1976,
  "directly</w>": 1977,
  "dis": 1978,
  "disabilit": 1979,
  "disabilities</w>": 1980,
  "disc": 1981,
  "discovered</w>": 1982,
  "disd": 1983,
  "disdain": 1984,
  "disgrac": 1985,
  "dish": 1986,
  "displ": 1987,
  "dist": 1988,
  "distinc": 1989,
  "distingu": 1990,
  "distinguish</w>": 1991,
  "distinguished</w>": 1992,
  "distric": 1993,
  "distur": 1994,
  "disturbed</w>": 1995,
  "div": 1996,
  "divid": 1997,
  "divided</w>": 1998,
  "divin": 1999,
  "dly</w>": 2000,
  "do": 2001,
  "do</w>": 2002,
  "doc": 2003,
  "doctr": 2004,
  "does</w>": 2005,
  "dog": 2006,
  "dol": 2007,
  "dolorous</w>": 2008,
  "dom": 2009,
  "dom</w>": 2010,
  "domin": 2011,
  "done,</w>": 2012,
  "done</w>": 2013,
  "doom": 2014,
  "doomed</w>": 2015,
  "dost</w>": 2016,
  "doth</w>": 2017,
  "doub": 2018,
  "doubt": 2019,
  "doubt</w>": 2020,
  "dov": 2021,
  "down": 2022,
  "down,</w>": 2023,
  "down</w>": 2024,
  "downward</w>": 2025,
  "dr": 2026,
  "drag": 2027,
  "draw": 2028,
  "drawn</w>": 2029,
  "dre": 2030,
  "dream": 2031,
  "dred</w>": 2032,
  "dres": 2033,
  "drew</w>": 2034,
  "dri": 2035,
  "driv": 2036,
  "driven</w>": 2037,
  "drown": 2038,
  "dry</w>": 2039,
  "ds": 2040,
  "ds,</w>": 2041,
  "ds</w>": 2042,
  "dst</w>": 2043,
  "du": 2044,
  "duc": 2045,
  "duced</w>": 2046,
  "due</w>": 2047,
  "dumb": 2048,
  "dumb</w>": 2049,
  "during</w>": 2050,
  "dust": 2051,
  "dut": 2052,
  "duties</w>": 2053,
  "dwell": 2054,
  "dwell</w>": 2055,
  "e": 2056,
  "e'er</w>": 2057,
  "e's</w>": 2058,
  "e,'</w>": 2059,
  "e,</w>": 2060,
  "e-": 2061,
  "e--": 2062,
  "e--</w>": 2063,
  "e--the</w>": 2064,
  "e.": 2065,
  "e.'</w>": 2066,
  "e.</w>": 2067,
  "e.g": 2068,
  "e:</w>": 2069,
  "e;</w>": 2070,
  "e</w>": 2071,
  "e?'</w>": 2072,
  "e_:</w>": 2073,
  "ea": 2074,
  "eace</w>": 2075,
  "each</w>": 2076,
  "eag": 2077,
  "eager": 2078,
  "eager</w>": 2079,
  "eak</w>": 2080,
  "eal": 2081,
  "ear": 2082,
  "ear</w>": 2083,
  "earli": 2084,
  "earlier</w>": 2085,
  "earliest</w>": 2086,
  "early</w>": 2087,
  "earth,</w>": 2088,
  "earth</w>": 2089,
  "eas": 2090,
  "ease</w>": 2091,
  "easily</w>": 2092,
  "easy</w>": 2093,
  "eath</w>": 2094,
  "ebr": 2095,
  "ec": 2096,
  "eccl": 2097,
  "ecclesi": 2098,
  "ect": 2099,
  "ect</w>": 2100,
  "ected</w>": 2101,
  "ection</w>": 2102,
  "ects</w>": 2103,
  "ed": 2104,
  "ed,</w>": 2105,
  "ed--": 2106,
  "ed--the</w>": 2107,
  "ed.'</w>": 2108,
  "ed.</w>": 2109,
  "ed:</w>": 2110,
  "ed;</w>": 2111,
  "ed</w>": 2112,
  "eded</w>": 2113,
  "edge</w>": 2114,
  "edic": 2115,
  "edness</w>": 2116,
  "eds</w>": 2117,
  "educ": 2118,
  "edy</w>": 2119,
  "een</w>": 2120,
  "ef": 2121,
  "ef</w>": 2122,
  "eff": 2123,
  "effec": 2124,
  "effor": 2125,
  "eful</w>": 2126,
  "egg": 2127,
  "egghi": 2128,
  "egghiai": 2129,
  "ei": 2130,
  "eign</w>": 2131,
  "either</w>": 2132,
  "eiv": 2133,
  "eive</w>": 2134,
  "el": 2135,
  "el,</w>": 2136,
  "el</w>": 2137,
  "elected</w>": 2138,
  "eled</w>": 2139,
  "elest": 2140,
  "eli": 2141,
  "ell": 2142,
  "ell</w>": 2143,
  "elled</w>": 2144,
  "elli": 2145,
  "elling</w>": 2146,
  "elo": 2147,
  "elop": 2148,
  "eloqu": 2149,
  "els</w>": 2150,
  "else": 2151,
  "else</w>": 2152,
  "ely</w>": 2153,
  "em": 2154,
  "em</w>": 2155,
  "emb": 2156,
  "embass": 2157,
  "embassy</w>": 2158,
  "ember</w>": 2159,
  "emble": 2160,
  "embr": 2161,
  "ement</w>": 2162,
  "emin": 2163,
  "emo": 2164,
  "emp": 2165,
  "empl": 2166,
  "employ": 2167,
  "employed</w>": 2168,
  "empor": 2169,
  "en": 2170,
  "en,</w>": 2171,
  "en.'</w>": 2172,
  "en.</w>": 2173,
  "en;</w>": 2174,
  "en</w>": 2175,
  "enc": 2176,
  "ence": 2177,
  "ence,</w>": 2178,
  "ence.</w>": 2179,
  "ence;</w>": 2180,
  "ence</w>": 2181,
  "enced</w>": 2182,
  "enceforth</w>": 2183,
  "ences,</w>": 2184,
  "ences</w>": 2185,
  "encoun": 2186,
  "ency</w>": 2187,
  "end": 2188,
  "end,</w>": 2189,
  "end</w>": 2190,
  "ended</w>": 2191,
  "ending</w>": 2192,
  "endless</w>": 2193,
  "ends</w>": 2194,
  "enduring</w>": 2195,
  "ened</w>": 2196,
  "enem": 2197,
  "enemies</w>": 2198,
  "eness</w>": 2199,
  "eng": 2200,
  "engag": 2201,
  "engage</w>": 2202,
  "engaged</w>": 2203,
  "ength</w>": 2204,
  "ening</w>": 2205,
  "enjoy": 2206,
  "enorm": 2207,
  "enough</w>": 2208,
  "ens,</w>": 2209,
  "ens</w>": 2210,
  "ent": 2211,
  "ent,</w>": 2212,
  "ent.</w>": 2213,
  "ent</w>": 2214,
  "ented</w>": 2215,
  "enter": 2216,
  "enter</w>": 2217,
  "entered</w>": 2218,
  "enth</w>": 2219,
  "enti": 2220,
  "ently</w>": 2221,
  "entr": 2222,
  "entrance</w>": 2223,
  "ents</w>": 2224,
  "env": 2225,
  "eous</w>": 2226,
  "ep": 2227,
  "ep</w>": 2228,
  "eping</w>": 2229,
  "ept</w>": 2230,
  "eption</w>": 2231,
  "equ": 2232,
  "equal</w>": 2233,
  "equally</w>": 2234,
  "er": 2235,
  "er's</w>": 2236,
  "er,</w>": 2237,
  "er-": 2238,
  "er.</w>": 2239,
  "er;</w>": 2240,
  "er</w>": 2241,
  "erc": 2242,
  "erce</w>": 2243,
  "ere": 2244,
  "ere,</w>": 2245,
  "ere</w>": 2246,
  "ered</w>": 2247,
  "erefore</w>": 2248,
  "erence</w>": 2249,
  "ereon</w>": 2250,
  "ering</w>": 2251,
  "ern": 2252,
  "ern</w>": 2253,
  "ernal</w>": 2254,
  "eron": 2255,
  "erous</w>": 2256,
  "err": 2257,
  "erred</w>": 2258,
  "erring</w>": 2259,
  "error</w>": 2260,
  "ers": 2261,
  "ers,</w>": 2262,
  "ers--": 2263,
  "ers.</w>": 2264,
  "ers</w>": 2265,
  "ert</w>": 2266,
  "ery</w>": 2267,
  "es": 2268,
  "es'</w>": 2269,
  "es,'</w>": 2270,
  "es,</w>": 2271,
  "es--": 2272,
  "es.'</w>": 2273,
  "es.</w>": 2274,
  "es;</w>": 2275,
  "es</w>": 2276,
  "es_:</w>": 2277,
  "esc": 2278,
  "escap": 2279,
  "escape</w>": 2280,
  "ese,</w>": 2281,
  "ese</w>": 2282,
  "esi": 2283,
  "espec": 2284,
  "especially</w>": 2285,
  "ess": 2286,
  "ess,</w>": 2287,
  "ess.</w>": 2288,
  "ess</w>": 2289,
  "essed</w>": 2290,
  "essi": 2291,
  "essing</w>": 2292,
  "ession</w>": 2293,
  "est": 2294,
  "est,</w>": 2295,
  "est</w>": 2296,
  "establ": 2297,
  "established</w>": 2298,
  "este": 2299,
  "esteem</w>": 2300,
  "et": 2301,
  "et,</w>": 2302,
  "et</w>": 2303,
  "etc": 2304,
  "etc.": 2305,
  "etc.</w>": 2306,
  "etc._:</w>": 2307,
  "eter": 2308,
  "etern": 2309,
  "eternal</w>": 2310,
  "eth": 2311,
  "eth</w>": 2312,
  "etic": 2313,
  "ets</w>": 2314,
  "ety,</w>": 2315,
  "ety</w>": 2316,
  "ev": 2317,
  "eve</w>": 2318,
  "even</w>": 2319,
  "ever": 2320,
  "ever,</w>": 2321,
  "ever</w>": 2322,
  "evermore</w>": 2323,
  "every</w>": 2324,
  "everything</w>": 2325,
  "evid": 2326,
  "evidence</w>": 2327,
  "evil</w>": 2328,
  "ew": 2329,
  "ew</w>": 2330,
  "ex": 2331,
  "exagg": 2332,
  "exagger": 2333,
  "exal": 2334,
  "exam": 2335,
  "example,</w>": 2336,
  "exc": 2337,
  "except</w>": 2338,
  "excommunic": 2339,
  "exec": 2340,
  "exerc": 2341,
  "exercise</w>": 2342,
  "exil": 2343,
  "exile,</w>": 2344,
  "exile.</w>": 2345,
  "exile</w>": 2346,
  "exiles</w>": 2347,
  "exist": 2348,
  "exp": 2349,
  "expect": 2350,
  "experi": 2351,
  "experience</w>": 2352,
  "explain": 2353,
  "explan": 2354,
  "expres": 2355,
  "expression</w>": 2356,
  "ext": 2357,
  "ext,</w>": 2358,
  "ext</w>": 2359,
  "ey": 2360,
  "eye</w>": 2361,
  "eyes,</w>": 2362,
  "eyes.</w>": 2363,
  "eyes</w>": 2364,
  "f": 2365,
  "f</w>": 2366,
  "fa": 2367,
  "fac": 2368,
  "face,</w>": 2369,
  "face.</w>": 2370,
  "face</w>": 2371,
  "fact</w>": 2372,
  "fai": 2373,
  "fail": 2374,
  "failed</w>": 2375,
  "fain": 2376,
  "fain</w>": 2377,
  "fair</w>": 2378,
  "faith": 2379,
  "faith</w>": 2380,
  "fal": 2381,
  "fall": 2382,
  "fall</w>": 2383,
  "fallen</w>": 2384,
  "falling</w>": 2385,
  "falls</w>": 2386,
  "false</w>": 2387,
  "fam": 2388,
  "fame</w>": 2389,
  "famil": 2390,
  "famili": 2391,
  "familiar</w>": 2392,
  "family,</w>": 2393,
  "family</w>": 2394,
  "fanc": 2395,
  "far": 2396,
  "far</w>": 2397,
  "fas": 2398,
  "fashi": 2399,
  "fashion</w>": 2400,
  "fat": 2401,
  "fate.</w>": 2402,
  "fate</w>": 2403,
  "father": 2404,
  "father</w>": 2405,
  "faul": 2406,
  "fav": 2407,
  "favour": 2408,
  "favour</w>": 2409,
  "favourite</w>": 2410,
  "fe": 2411,
  "fear": 2412,
  "fear,</w>": 2413,
  "fear</w>": 2414,
  "features</w>": 2415,
  "fed</w>": 2416,
  "feel": 2417,
  "feel</w>": 2418,
  "feet,</w>": 2419,
  "feet</w>": 2420,
  "feign": 2421,
  "fel": 2422,
  "fell": 2423,
  "fell,</w>": 2424,
  "fell</w>": 2425,
  "fellow": 2426,
  "fellow-": 2427,
  "felt</w>": 2428,
  "fer": 2429,
  "fer</w>": 2430,
  "ference</w>": 2431,
  "feud": 2432,
  "few</w>": 2433,
  "ff": 2434,
  "ffer": 2435,
  "ffic": 2436,
  "fi": 2437,
  "fic": 2438,
  "fied</w>": 2439,
  "fiel": 2440,
  "fierc": 2441,
  "fierce</w>": 2442,
  "fiercely</w>": 2443,
  "fig": 2444,
  "fight": 2445,
  "fighting</w>": 2446,
  "figure</w>": 2447,
  "fil": 2448,
  "fill": 2449,
  "fill</w>": 2450,
  "filled</w>": 2451,
  "filthy</w>": 2452,
  "fin": 2453,
  "find</w>": 2454,
  "finding</w>": 2455,
  "finds</w>": 2456,
  "fine</w>": 2457,
  "fir": 2458,
  "fire": 2459,
  "fire,</w>": 2460,
  "fire</w>": 2461,
  "first</w>": 2462,
  "fit</w>": 2463,
  "five</w>": 2464,
  "fix": 2465,
  "fixed</w>": 2466,
  "fl": 2467,
  "flakes</w>": 2468,
  "flam": 2469,
  "flames</w>": 2470,
  "fle": 2471,
  "fled</w>": 2472,
  "fles": 2473,
  "flo": 2474,
  "flood</w>": 2475,
  "flor": 2476,
  "fo": 2477,
  "fol": 2478,
  "folk</w>": 2479,
  "follow": 2480,
  "follow</w>": 2481,
  "followed</w>": 2482,
  "following</w>": 2483,
  "foo": 2484,
  "fool": 2485,
  "foot": 2486,
  "foot</w>": 2487,
  "for": 2488,
  "for,</w>": 2489,
  "for</w>": 2490,
  "forc": 2491,
  "force</w>": 2492,
  "forced</w>": 2493,
  "fore": 2494,
  "fore,</w>": 2495,
  "fore</w>": 2496,
  "foreign</w>": 2497,
  "forest</w>": 2498,
  "forg": 2499,
  "form": 2500,
  "form</w>": 2501,
  "formed</w>": 2502,
  "former</w>": 2503,
  "forth</w>": 2504,
  "fortre": 2505,
  "fortun": 2506,
  "fortune</w>": 2507,
  "fortunes</w>": 2508,
  "forward</w>": 2509,
  "fought</w>": 2510,
  "foun": 2511,
  "found,</w>": 2512,
  "found</w>": 2513,
  "founded</w>": 2514,
  "four</w>": 2515,
  "fourth</w>": 2516,
  "fr": 2517,
  "frank</w>": 2518,
  "fraud": 2519,
  "fraud</w>": 2520,
  "fre": 2521,
  "free</w>": 2522,
  "freely</w>": 2523,
  "frequ": 2524,
  "frequently</w>": 2525,
  "fresc": 2526,
  "fresco</w>": 2527,
  "fri": 2528,
  "friend": 2529,
  "friend</w>": 2530,
  "friends</w>": 2531,
  "from</w>": 2532,
  "front</w>": 2533,
  "fru": 2534,
  "ft": 2535,
  "ft</w>": 2536,
  "fted</w>": 2537,
  "fth</w>": 2538,
  "fty</w>": 2539,
  "fu": 2540,
  "ful": 2541,
  "ful</w>": 2542,
  "full</w>": 2543,
  "fully</w>": 2544,
  "fulness</w>": 2545,
  "fur": 2546,
  "further</w>": 2547,
  "fut": 2548,
  "future</w>": 2549,
  "g": 2550,
  "g</w>": 2551,
  "ga": 2552,
  "gain": 2553,
  "gain</w>": 2554,
  "gained</w>": 2555,
  "gainst</w>": 2556,
  "gat": 2557,
  "gate": 2558,
  "gate</w>": 2559,
  "gates</w>": 2560,
  "gather": 2561,
  "gather</w>": 2562,
  "gathered</w>": 2563,
  "gathering</w>": 2564,
  "gave</w>": 2565,
  "gaz": 2566,
  "ge": 2567,
  "ge,</w>": 2568,
  "ge.</w>": 2569,
  "ge</w>": 2570,
  "ged</w>": 2571,
  "gen": 2572,
  "gener": 2573,
  "general</w>": 2574,
  "generally</w>": 2575,
  "generous</w>": 2576,
  "geni": 2577,
  "genius,</w>": 2578,
  "genius</w>": 2579,
  "gent": 2580,
  "gentle": 2581,
  "gentle</w>": 2582,
  "ger</w>": 2583,
  "ges.</w>": 2584,
  "ges</w>": 2585,
  "gest": 2586,
  "get": 2587,
  "get</w>": 2588,
  "getting</w>": 2589,
  "gg": 2590,
  "gh": 2591,
  "gh</w>": 2592,
  "ght": 2593,
  "ght,</w>": 2594,
  "ght.</w>": 2595,
  "ght;</w>": 2596,
  "ght</w>": 2597,
  "ghty</w>": 2598,
  "gi": 2599,
  "gin</w>": 2600,
  "ging</w>": 2601,
  "gir": 2602,
  "give</w>": 2603,
  "given</w>": 2604,
  "gives</w>": 2605,
  "gl": 2606,
  "glance</w>": 2607,
  "gli": 2608,
  "glo": 2609,
  "glor": 2610,
  "glow": 2611,
  "gn": 2612,
  "gn</w>": 2613,
  "go": 2614,
  "go,</w>": 2615,
  "go</w>": 2616,
  "goes</w>": 2617,
  "going</w>": 2618,
  "gold</w>": 2619,
  "goo": 2620,
  "good": 2621,
  "good.</w>": 2622,
  "good</w>": 2623,
  "goods</w>": 2624,
  "goodwill</w>": 2625,
  "got</w>": 2626,
  "gover": 2627,
  "govern": 2628,
  "government,</w>": 2629,
  "government</w>": 2630,
  "gr": 2631,
  "grac": 2632,
  "grace</w>": 2633,
  "grand": 2634,
  "grandson</w>": 2635,
  "grap": 2636,
  "grat": 2637,
  "gre": 2638,
  "great": 2639,
  "great</w>": 2640,
  "greater</w>": 2641,
  "greatest</w>": 2642,
  "greatly</w>": 2643,
  "green</w>": 2644,
  "grew": 2645,
  "grew</w>": 2646,
  "gri": 2647,
  "griev": 2648,
  "grievous</w>": 2649,
  "groun": 2650,
  "ground,</w>": 2651,
  "ground.</w>": 2652,
  "ground</w>": 2653,
  "grow</w>": 2654,
  "grows</w>": 2655,
  "grud": 2656,
  "gu": 2657,
  "guard</w>": 2658,
  "guardi": 2659,
  "guid": 2660,
  "guide": 2661,
  "guide</w>": 2662,
  "guil": 2663,
  "guilt</w>": 2664,
  "guilty</w>": 2665,
  "gul": 2666,
  "gust": 2667,
  "gust</w>": 2668,
  "h": 2669,
  "h,</w>": 2670,
  "h</w>": 2671,
  "ha": 2672,
  "habit": 2673,
  "had,</w>": 2674,
  "had</w>": 2675,
  "hair</w>": 2676,
  "hal": 2677,
  "half": 2678,
  "half-": 2679,
  "half</w>": 2680,
  "ham": 2681,
  "hand": 2682,
  "hand,</w>": 2683,
  "hand</w>": 2684,
  "hands</w>": 2685,
  "hang": 2686,
  "hap": 2687,
  "happ": 2688,
  "happy</w>": 2689,
  "har": 2690,
  "hard": 2691,
  "hard</w>": 2692,
  "hardly</w>": 2693,
  "has</w>": 2694,
  "hast": 2695,
  "hast</w>": 2696,
  "hat": 2697,
  "hath</w>": 2698,
  "hau": 2699,
  "have</w>": 2700,
  "having</w>": 2701,
  "he": 2702,
  "he,</w>": 2703,
  "he:</w>": 2704,
  "he</w>": 2705,
  "hea": 2706,
  "head": 2707,
  "head,</w>": 2708,
  "head</w>": 2709,
  "heads</w>": 2710,
  "hear": 2711,
  "hear</w>": 2712,
  "heard</w>": 2713,
  "hearing</w>": 2714,
  "heart": 2715,
  "heart,</w>": 2716,
  "heart</w>": 2717,
  "hearts</w>": 2718,
  "heathen</w>": 2719,
  "heav": 2720,
  "heaven": 2721,
  "heaven</w>": 2722,
  "heavy</w>": 2723,
  "hel": 2724,
  "held</w>": 2725,
  "help": 2726,
  "help</w>": 2727,
  "helped</w>": 2728,
  "hem": 2729,
  "hence</w>": 2730,
  "her": 2731,
  "her,</w>": 2732,
  "her.</w>": 2733,
  "her</w>": 2734,
  "here,</w>": 2735,
  "here</w>": 2736,
  "heres": 2737,
  "heretic": 2738,
  "hi": 2739,
  "hidden</w>": 2740,
  "hier": 2741,
  "high": 2742,
  "high,</w>": 2743,
  "high</w>": 2744,
  "higher</w>": 2745,
  "highest</w>": 2746,
  "highly</w>": 2747,
  "hil": 2748,
  "hill": 2749,
  "hilos": 2750,
  "hilosop": 2751,
  "him": 2752,
  "him,</w>": 2753,
  "him.</w>": 2754,
  "him:</w>": 2755,
  "him;</w>": 2756,
  "him</w>": 2757,
  "himself": 2758,
  "himself,</w>": 2759,
  "himself.</w>": 2760,
  "himself</w>": 2761,
  "hin": 2762,
  "hindr": 2763,
  "hindrance</w>": 2764,
  "hint</w>": 2765,
  "his</w>": 2766,
  "histor": 2767,
  "history</w>": 2768,
  "hither</w>": 2769,
  "ho": 2770,
  "hol": 2771,
  "hold</w>": 2772,
  "holding</w>": 2773,
  "holds</w>": 2774,
  "hom": 2775,
  "home</w>": 2776,
  "hon": 2777,
  "honest</w>": 2778,
  "honour": 2779,
  "honour</w>": 2780,
  "honourable</w>": 2781,
  "hoo": 2782,
  "hood</w>": 2783,
  "hop": 2784,
  "hope</w>": 2785,
  "hoped</w>": 2786,
  "hopes</w>": 2787,
  "hor": 2788,
  "hos": 2789,
  "hostile</w>": 2790,
  "hou": 2791,
  "hour</w>": 2792,
  "hours</w>": 2793,
  "hous": 2794,
  "house": 2795,
  "house</w>": 2796,
  "how": 2797,
  "how,</w>": 2798,
  "how</w>": 2799,
  "however</w>": 2800,
  "hu": 2801,
  "hue</w>": 2802,
  "hum": 2803,
  "human": 2804,
  "human</w>": 2805,
  "hun": 2806,
  "hundred</w>": 2807,
  "hur": 2808,
  "hus": 2809,
  "husb": 2810,
  "husband": 2811,
  "husband</w>": 2812,
  "i": 2813,
  "i,</w>": 2814,
  "i.": 2815,
  "i.</w>": 2816,
  "i</w>": 2817,
  "ia</w>": 2818,
  "iac": 2819,
  "ial": 2820,
  "ial</w>": 2821,
  "ially</w>": 2822,
  "ials</w>": 2823,
  "ian": 2824,
  "ian</w>": 2825,
  "ic": 2826,
  "ic,</w>": 2827,
  "ic</w>": 2828,
  "ical</w>": 2829,
  "ice,</w>": 2830,
  "ice.</w>": 2831,
  "ice</w>": 2832,
  "ich": 2833,
  "ick": 2834,
  "id": 2835,
  "id,</w>": 2836,
  "id</w>": 2837,
  "idd": 2838,
  "ide": 2839,
  "ide</w>": 2840,
  "idea</w>": 2841,
  "idence</w>": 2842,
  "ides</w>": 2843,
  "ied</w>": 2844,
  "iel": 2845,
  "ient</w>": 2846,
  "ier</w>": 2847,
  "ies": 2848,
  "ies,</w>": 2849,
  "ies.</w>": 2850,
  "ies</w>": 2851,
  "if": 2852,
  "if,</w>": 2853,
  "if</w>": 2854,
  "iff</w>": 2855,
  "ific": 2856,
  "ified</w>": 2857,
  "ify</w>": 2858,
  "ig": 2859,
  "igh": 2860,
  "ight": 2861,
  "ight</w>": 2862,
  "ign": 2863,
  "ign</w>": 2864,
  "ignor": 2865,
  "ignorant</w>": 2866,
  "ii": 2867,
  "ii.</w>": 2868,
  "iii.</w>": 2869,
  "il": 2870,
  "il,</w>": 2871,
  "il</w>": 2872,
  "ile": 2873,
  "ile</w>": 2874,
  "iled</w>": 2875,
  "iling</w>": 2876,
  "ilit": 2877,
  "ility</w>": 2878,
  "ill": 2879,
  "ill-": 2880,
  "ill</w>": 2881,
  "illan": 2882,
  "illi": 2883,
  "illustr": 2884,
  "illustrious</w>": 2885,
  "ils</w>": 2886,
  "ily</w>": 2887,
  "im": 2888,
  "imag": 2889,
  "image</w>": 2890,
  "imagin": 2891,
  "imagine</w>": 2892,
  "immedi": 2893,
  "immediately</w>": 2894,
  "imp": 2895,
  "import": 2896,
  "importance</w>": 2897,
  "impossible</w>": 2898,
  "impres": 2899,
  "in": 2900,
  "in,</w>": 2901,
  "in.</w>": 2902,
  "in</w>": 2903,
  "inat": 2904,
  "inc": 2905,
  "incar": 2906,
  "ince</w>": 2907,
  "incid": 2908,
  "includ": 2909,
  "included</w>": 2910,
  "incre": 2911,
  "ind": 2912,
  "ind</w>": 2913,
  "inde": 2914,
  "indeb": 2915,
  "indebted</w>": 2916,
  "indeed,</w>": 2917,
  "indeed</w>": 2918,
  "indep": 2919,
  "independ": 2920,
  "independent</w>": 2921,
  "indic": 2922,
  "indifference</w>": 2923,
  "individ": 2924,
  "individual</w>": 2925,
  "industr": 2926,
  "industry</w>": 2927,
  "ine,</w>": 2928,
  "ine</w>": 2929,
  "ined</w>": 2930,
  "iness</w>": 2931,
  "inf": 2932,
  "infer</w>": 2933,
  "infernal</w>": 2934,
  "inferred</w>": 2935,
  "infin": 2936,
  "infl": 2937,
  "influ": 2938,
  "influence</w>": 2939,
  "inform": 2940,
  "ing": 2941,
  "ing,</w>": 2942,
  "ing-": 2943,
  "ing.</w>": 2944,
  "ing:</w>": 2945,
  "ing</w>": 2946,
  "ingen": 2947,
  "ings,</w>": 2948,
  "ings</w>": 2949,
  "ingu": 2950,
  "ini": 2951,
  "ining</w>": 2952,
  "injustice</w>": 2953,
  "ink</w>": 2954,
  "inn": 2955,
  "inner</w>": 2956,
  "ino,</w>": 2957,
  "ino</w>": 2958,
  "inqu": 2959,
  "inquir": 2960,
  "ins</w>": 2961,
  "insol": 2962,
  "inspir": 2963,
  "inst": 2964,
  "instance,</w>": 2965,
  "instance</w>": 2966,
  "instea": 2967,
  "instead</w>": 2968,
  "int": 2969,
  "intel": 2970,
  "intellec": 2971,
  "intellectu": 2972,
  "intellectual</w>": 2973,
  "intellig": 2974,
  "inter": 2975,
  "interdic": 2976,
  "interest": 2977,
  "interest</w>": 2978,
  "interesting</w>": 2979,
  "interests</w>": 2980,
  "interpret": 2981,
  "intim": 2982,
  "into</w>": 2983,
  "intro": 2984,
  "introduc": 2985,
  "introduced</w>": 2986,
  "inv": 2987,
  "invol": 2988,
  "ion": 2989,
  "ion,</w>": 2990,
  "ion.</w>": 2991,
  "ion</w>": 2992,
  "ions</w>": 2993,
  "ios": 2994,
  "ious</w>": 2995,
  "iously</w>": 2996,
  "ir": 2997,
  "ir</w>": 2998,
  "irc": 2999,
  "ircl": 3000,
  "ircle,</w>": 3001,
  "ire": 3002,
  "ire,</w>": 3003,
  "ire.</w>": 3004,
  "ire</w>": 3005,
  "ired</w>": 3006,
  "is": 3007,
  "is,</w>": 3008,
  "is.</w>": 3009,
  "is</w>": 3010,
  "ise,</w>": 3011,
  "ise.</w>": 3012,
  "ise</w>": 3013,
  "ised</w>": 3014,
  "ises</w>": 3015,
  "ish": 3016,
  "ish</w>": 3017,
  "ished</w>": 3018,
  "ising</w>": 3019,
  "ision</w>": 3020,
  "ism": 3021,
  "ism.</w>": 3022,
  "ism</w>": 3023,
  "isp": 3024,
  "issu": 3025,
  "ist": 3026,
  "ist.</w>": 3027,
  "ist</w>": 3028,
  "isto": 3029,
  "it": 3030,
  "it,</w>": 3031,
  "it.</w>": 3032,
  "it</w>": 3033,
  "itation</w>": 3034,
  "ite</w>": 3035,
  "ited</w>": 3036,
  "iter": 3037,
  "ither</w>": 3038,
  "iti": 3039,
  "ities</w>": 3040,
  "itiff": 3041,
  "iting</w>": 3042,
  "ition": 3043,
  "ition</w>": 3044,
  "itions</w>": 3045,
  "its</w>": 3046,
  "itself": 3047,
  "itself</w>": 3048,
  "itt": 3049,
  "itted</w>": 3050,
  "itting</w>": 3051,
  "itu": 3052,
  "itude</w>": 3053,
  "ity": 3054,
  "ity,</w>": 3055,
  "ity.</w>": 3056,
  "ity</w>": 3057,
  "iv": 3058,
  "iv.</w>": 3059,
  "ive</w>": 3060,
  "iver": 3061,
  "ivers": 3062,
  "ix.</w>": 3063,
  "iz": 3064,
  "j": 3065,
  "jo": 3066,
  "join</w>": 3067,
  "joined</w>": 3068,
  "jour": 3069,
  "journe": 3070,
  "journey</w>": 3071,
  "joy": 3072,
  "joy</w>": 3073,
  "jud": 3074,
  "judg": 3075,
  "judge</w>": 3076,
  "judgment</w>": 3077,
  "jur": 3078,
  "just": 3079,
  "just</w>": 3080,
  "justice</w>": 3081,
  "justly</w>": 3082,
  "k": 3083,
  "k,</w>": 3084,
  "k.</w>": 3085,
  "k</w>": 3086,
  "ke": 3087,
  "ke</w>": 3088,
  "ked</w>": 3089,
  "keep": 3090,
  "keep</w>": 3091,
  "ken</w>": 3092,
  "kept</w>": 3093,
  "kes</w>": 3094,
  "key": 3095,
  "kin": 3096,
  "kind": 3097,
  "kind</w>": 3098,
  "king": 3099,
  "king</w>": 3100,
  "kingdom": 3101,
  "kn": 3102,
  "kne": 3103,
  "knew,</w>": 3104,
  "knew</w>": 3105,
  "know": 3106,
  "know</w>": 3107,
  "knowing</w>": 3108,
  "knowl": 3109,
  "knowled": 3110,
  "knowledge</w>": 3111,
  "known,</w>": 3112,
  "known.</w>": 3113,
  "known</w>": 3114,
  "knows</w>": 3115,
  "ks,</w>": 3116,
  "ks</w>": 3117,
  "ky</w>": 3118,
  "l": 3119,
  "l</w>": 3120,
  "la": 3121,
  "lab": 3122,
  "lad": 3123,
  "ladies</w>": 3124,
  "lady,</w>": 3125,
  "lady</w>": 3126,
  "laid</w>": 3127,
  "lake</w>": 3128,
  "lam": 3129,
  "lament": 3130,
  "lament.</w>": 3131,
  "land": 3132,
  "land</w>": 3133,
  "landed</w>": 3134,
  "lands</w>": 3135,
  "langu": 3136,
  "language</w>": 3137,
  "lar": 3138,
  "large</w>": 3139,
  "last": 3140,
  "last,</w>": 3141,
  "last</w>": 3142,
  "lat": 3143,
  "later,</w>": 3144,
  "later</w>": 3145,
  "lau": 3146,
  "law": 3147,
  "law</w>": 3148,
  "lay": 3149,
  "lay</w>": 3150,
  "le": 3151,
  "le,</w>": 3152,
  "le-": 3153,
  "le--": 3154,
  "le.</w>": 3155,
  "le</w>": 3156,
  "lead": 3157,
  "lead</w>": 3158,
  "leader</w>": 3159,
  "leading</w>": 3160,
  "leads</w>": 3161,
  "lear": 3162,
  "learn</w>": 3163,
  "learned</w>": 3164,
  "least</w>": 3165,
  "leave</w>": 3166,
  "leaves</w>": 3167,
  "leaving</w>": 3168,
  "lec": 3169,
  "led</w>": 3170,
  "lef": 3171,
  "left</w>": 3172,
  "leg": 3173,
  "legen": 3174,
  "legend": 3175,
  "legy": 3176,
  "lement</w>": 3177,
  "len": 3178,
  "length</w>": 3179,
  "leop": 3180,
  "leopard</w>": 3181,
  "ler</w>": 3182,
  "les,</w>": 3183,
  "les</w>": 3184,
  "less": 3185,
  "less,</w>": 3186,
  "less</w>": 3187,
  "let": 3188,
  "let</w>": 3189,
  "letter</w>": 3190,
  "letters</w>": 3191,
  "lev": 3192,
  "lex": 3193,
  "lexand": 3194,
  "ley</w>": 3195,
  "li": 3196,
  "liber": 3197,
  "liberty</w>": 3198,
  "lic": 3199,
  "licam": 3200,
  "licamë": 3201,
  "lie</w>": 3202,
  "lies</w>": 3203,
  "lif": 3204,
  "life": 3205,
  "life,</w>": 3206,
  "life.</w>": 3207,
  "life</w>": 3208,
  "lift</w>": 3209,
  "lig": 3210,
  "light": 3211,
  "light</w>": 3212,
  "lik": 3213,
  "like</w>": 3214,
  "likely</w>": 3215,
  "lim": 3216,
  "lin": 3217,
  "line</w>": 3218,
  "lines</w>": 3219,
  "ling": 3220,
  "ling</w>": 3221,
  "lion</w>": 3222,
  "lip": 3223,
  "lip</w>": 3224,
  "list": 3225,
  "list</w>": 3226,
  "liter": 3227,
  "litt": 3228,
  "little</w>": 3229,
  "liv": 3230,
  "lived</w>": 3231,
  "lives</w>": 3232,
  "living</w>": 3233,
  "lo": 3234,
  "lofty</w>": 3235,
  "long": 3236,
  "long-": 3237,
  "long</w>": 3238,
  "longer</w>": 3239,
  "loo": 3240,
  "look</w>": 3241,
  "looked</w>": 3242,
  "lor": 3243,
  "lord</w>": 3244,
  "lords</w>": 3245,
  "los": 3246,
  "lose</w>": 3247,
  "loss</w>": 3248,
  "lost</w>": 3249,
  "lou": 3250,
  "loud</w>": 3251,
  "lov": 3252,
  "love,</w>": 3253,
  "love</w>": 3254,
  "lover</w>": 3255,
  "loves</w>": 3256,
  "low": 3257,
  "low</w>": 3258,
  "lower</w>": 3259,
  "lowest</w>": 3260,
  "loy": 3261,
  "lut": 3262,
  "ly,</w>": 3263,
  "ly</w>": 3264,
  "m": 3265,
  "m</w>": 3266,
  "mad": 3267,
  "made,</w>": 3268,
  "made</w>": 3269,
  "mag": 3270,
  "magn": 3271,
  "magnat": 3272,
  "main": 3273,
  "mak": 3274,
  "make</w>": 3275,
  "makes</w>": 3276,
  "making</w>": 3277,
  "mal": 3278,
  "mal</w>": 3279,
  "malign": 3280,
  "man": 3281,
  "man,</w>": 3282,
  "man.</w>": 3283,
  "man</w>": 3284,
  "mann": 3285,
  "manner</w>": 3286,
  "manners</w>": 3287,
  "many</w>": 3288,
  "mar": 3289,
  "mark</w>": 3290,
  "marri": 3291,
  "marriage</w>": 3292,
  "married</w>": 3293,
  "mast": 3294,
  "master</w>": 3295,
  "mat": 3296,
  "mater": 3297,
  "matter</w>": 3298,
  "may</w>": 3299,
  "me": 3300,
  "me,</w>": 3301,
  "me.</w>": 3302,
  "me:</w>": 3303,
  "me;</w>": 3304,
  "me</w>": 3305,
  "mean": 3306,
  "mean</w>": 3307,
  "meaning</w>": 3308,
  "means</w>": 3309,
  "meant</w>": 3310,
  "meas": 3311,
  "measure</w>": 3312,
  "med": 3313,
  "med</w>": 3314,
  "medi": 3315,
  "meet": 3316,
  "meet</w>": 3317,
  "meets</w>": 3318,
  "mem": 3319,
  "memb": 3320,
  "member": 3321,
  "member</w>": 3322,
  "members</w>": 3323,
  "memor": 3324,
  "memory</w>": 3325,
  "men": 3326,
  "men,</w>": 3327,
  "men-": 3328,
  "men-at": 3329,
  "men-at-": 3330,
  "men.</w>": 3331,
  "men</w>": 3332,
  "ment": 3333,
  "ment,</w>": 3334,
  "ment.</w>": 3335,
  "ment</w>": 3336,
  "mention": 3337,
  "mention</w>": 3338,
  "mentioned</w>": 3339,
  "ments</w>": 3340,
  "mer": 3341,
  "merc": 3342,
  "merch": 3343,
  "mere</w>": 3344,
  "met</w>": 3345,
  "mi": 3346,
  "mid": 3347,
  "midd": 3348,
  "middle</w>": 3349,
  "might</w>": 3350,
  "mighty</w>": 3351,
  "mil": 3352,
  "miles</w>": 3353,
  "milit": 3354,
  "military</w>": 3355,
  "militia</w>": 3356,
  "min": 3357,
  "mind": 3358,
  "mind,</w>": 3359,
  "mind.</w>": 3360,
  "mind</w>": 3361,
  "mine</w>": 3362,
  "mis": 3363,
  "miser": 3364,
  "misery</w>": 3365,
  "misgi": 3366,
  "mission</w>": 3367,
  "mistre": 3368,
  "mo": 3369,
  "moder": 3370,
  "modern</w>": 3371,
  "mom": 3372,
  "mon": 3373,
  "mone": 3374,
  "money</w>": 3375,
  "mong</w>": 3376,
  "monst": 3377,
  "month": 3378,
  "month</w>": 3379,
  "months</w>": 3380,
  "moon</w>": 3381,
  "mor": 3382,
  "moral</w>": 3383,
  "more</w>": 3384,
  "morn": 3385,
  "morning</w>": 3386,
  "mortal</w>": 3387,
  "most</w>": 3388,
  "mother": 3389,
  "mother</w>": 3390,
  "motion</w>": 3391,
  "mou": 3392,
  "moun": 3393,
  "mountain": 3394,
  "mountain</w>": 3395,
  "mountains</w>": 3396,
  "mour": 3397,
  "mouth</w>": 3398,
  "mov": 3399,
  "moved</w>": 3400,
  "mp": 3401,
  "ms</w>": 3402,
  "mu": 3403,
  "much</w>": 3404,
  "mul": 3405,
  "mur": 3406,
  "murder</w>": 3407,
  "must": 3408,
  "must</w>": 3409,
  "my": 3410,
  "my</w>": 3411,
  "myself</w>": 3412,
  "myth": 3413,
  "n": 3414,
  "n,</w>": 3415,
  "n.</w>": 3416,
  "n</w>": 3417,
  "nak": 3418,
  "nal</w>": 3419,
  "nam": 3420,
  "name,</w>": 3421,
  "name</w>": 3422,
  "named</w>": 3423,
  "names</w>": 3424,
  "narr": 3425,
  "narrow": 3426,
  "narrow</w>": 3427,
  "nat": 3428,
  "nation</w>": 3429,
  "native</w>": 3430,
  "natur": 3431,
  "natural</w>": 3432,
  "nature": 3433,
  "nature</w>": 3434,
  "nd</w>": 3435,
  "ne": 3436,
  "ne'er</w>": 3437,
  "near": 3438,
  "near</w>": 3439,
  "nearer</w>": 3440,
  "nearest</w>": 3441,
  "nearly</w>": 3442,
  "neath</w>": 3443,
  "nec": 3444,
  "necess": 3445,
  "ned,</w>": 3446,
  "ned.</w>": 3447,
  "ned</w>": 3448,
  "need": 3449,
  "need</w>": 3450,
  "needed</w>": 3451,
  "neg": 3452,
  "neglec": 3453,
  "neigh": 3454,
  "neighb": 3455,
  "neighbour": 3456,
  "neighbourhood</w>": 3457,
  "neighbouring</w>": 3458,
  "neighbours</w>": 3459,
  "neither</w>": 3460,
  "nephe": 3461,
  "ness,</w>": 3462,
  "ness.</w>": 3463,
  "ness</w>": 3464,
  "nest</w>": 3465,
  "net": 3466,
  "never</w>": 3467,
  "new": 3468,
  "new</w>": 3469,
  "news</w>": 3470,
  "next</w>": 3471,
  "ni": 3472,
  "nigh": 3473,
  "nigh</w>": 3474,
  "night</w>": 3475,
  "nim": 3476,
  "nin": 3477,
  "nine</w>": 3478,
  "ning</w>": 3479,
  "no": 3480,
  "no</w>": 3481,
  "nob": 3482,
  "nobl": 3483,
  "noble</w>": 3484,
  "nobles,</w>": 3485,
  "nobles</w>": 3486,
  "noc": 3487,
  "none</w>": 3488,
  "nor</w>": 3489,
  "not": 3490,
  "not,</w>": 3491,
  "not</w>": 3492,
  "note</w>": 3493,
  "noted</w>": 3494,
  "nothing</w>": 3495,
  "nought</w>": 3496,
  "nov": 3497,
  "now": 3498,
  "now,</w>": 3499,
  "now</w>": 3500,
  "ns</w>": 3501,
  "num": 3502,
  "number</w>": 3503,
  "numerous</w>": 3504,
  "nur": 3505,
  "o": 3506,
  "o'": 3507,
  "o'er</w>": 3508,
  "o's</w>": 3509,
  "o,</w>": 3510,
  "o--": 3511,
  "o.</w>": 3512,
  "o;</w>": 3513,
  "o</w>": 3514,
  "o_,</w>": 3515,
  "o_:</w>": 3516,
  "o_</w>": 3517,
  "ob": 3518,
  "obe": 3519,
  "obedi": 3520,
  "obj": 3521,
  "object</w>": 3522,
  "objection</w>": 3523,
  "obsc": 3524,
  "observ": 3525,
  "obtained</w>": 3526,
  "oc": 3527,
  "occ": 3528,
  "occas": 3529,
  "occasion</w>": 3530,
  "oci": 3531,
  "of": 3532,
  "of,</w>": 3533,
  "of</w>": 3534,
  "off": 3535,
  "off</w>": 3536,
  "offered</w>": 3537,
  "offic": 3538,
  "office</w>": 3539,
  "offices</w>": 3540,
  "often</w>": 3541,
  "og": 3542,
  "ogn": 3543,
  "ograp": 3544,
  "oh": 3545,
  "ol": 3546,
  "old,</w>": 3547,
  "old</w>": 3548,
  "olo": 3549,
  "olog": 3550,
  "ology</w>": 3551,
  "om": 3552,
  "om,</w>": 3553,
  "om.</w>": 3554,
  "om</w>": 3555,
  "omb": 3556,
  "ome": 3557,
  "ome</w>": 3558,
  "omed": 3559,
  "omedy": 3560,
  "omy</w>": 3561,
  "on": 3562,
  "on's</w>": 3563,
  "on,</w>": 3564,
  "on.</w>": 3565,
  "on</w>": 3566,
  "onat": 3567,
  "onc": 3568,
  "once</w>": 3569,
  "one": 3570,
  "one,</w>": 3571,
  "one.</w>": 3572,
  "one;</w>": 3573,
  "one</w>": 3574,
  "oned</w>": 3575,
  "ong": 3576,
  "ong</w>": 3577,
  "onged</w>": 3578,
  "oni": 3579,
  "only</w>": 3580,
  "ons,</w>": 3581,
  "ons.</w>": 3582,
  "ons</w>": 3583,
  "ont</w>": 3584,
  "onward</w>": 3585,
  "oo": 3586,
  "ood": 3587,
  "ood,</w>": 3588,
  "ood</w>": 3589,
  "ool</w>": 3590,
  "op": 3591,
  "op</w>": 3592,
  "open": 3593,
  "open</w>": 3594,
  "opening</w>": 3595,
  "opin": 3596,
  "opinion</w>": 3597,
  "opol": 3598,
  "oppor": 3599,
  "opportun": 3600,
  "opportunity</w>": 3601,
  "oppos": 3602,
  "opposed</w>": 3603,
  "opposing</w>": 3604,
  "opposite</w>": 3605,
  "opposition</w>": 3606,
  "oppres": 3607,
  "or": 3608,
  "or,</w>": 3609,
  "or</w>": 3610,
  "order</w>": 3611,
  "ording</w>": 3612,
  "ore</w>": 3613,
  "org": 3614,
  "orig": 3615,
  "origin": 3616,
  "original</w>": 3617,
  "orm": 3618,
  "orous</w>": 3619,
  "ors,</w>": 3620,
  "ors</w>": 3621,
  "orth": 3622,
  "ortho": 3623,
  "orthodo": 3624,
  "ory</w>": 3625,
  "os": 3626,
  "os</w>": 3627,
  "ose</w>": 3628,
  "oss</w>": 3629,
  "ost": 3630,
  "ost</w>": 3631,
  "ostile</w>": 3632,
  "ot": 3633,
  "ot</w>": 3634,
  "otes</w>": 3635,
  "other": 3636,
  "other,</w>": 3637,
  "other</w>": 3638,
  "others</w>": 3639,
  "ou": 3640,
  "ou</w>": 3641,
  "oub": 3642,
  "ough": 3643,
  "ough</w>": 3644,
  "ought</w>": 3645,
  "oul": 3646,
  "oul</w>": 3647,
  "ould</w>": 3648,
  "ouldst</w>": 3649,
  "oun": 3650,
  "ounc": 3651,
  "ound</w>": 3652,
  "ount</w>": 3653,
  "our": 3654,
  "our,</w>": 3655,
  "our</w>": 3656,
  "oured</w>": 3657,
  "ours</w>": 3658,
  "ourselves</w>": 3659,
  "ourth</w>": 3660,
  "ous": 3661,
  "ous,</w>": 3662,
  "ous</w>": 3663,
  "ously</w>": 3664,
  "out": 3665,
  "out,</w>": 3666,
  "out.</w>": 3667,
  "out</w>": 3668,
  "outside</w>": 3669,
  "outward</w>": 3670,
  "ov": 3671,
  "oved</w>": 3672,
  "over": 3673,
  "over</w>": 3674,
  "overed</w>": 3675,
  "ow": 3676,
  "ow,</w>": 3677,
  "ow.</w>": 3678,
  "ow</w>": 3679,
  "owed</w>": 3680,
  "ower</w>": 3681,
  "owing</w>": 3682,
  "own": 3683,
  "own,</w>": 3684,
  "own.</w>": 3685,
  "own</w>": 3686,
  "ows,</w>": 3687,
  "ows</w>": 3688,
  "oy": 3689,
  "p": 3690,
  "p.</w>": 3691,
  "p</w>": 3692,
  "pa": 3693,
  "page</w>": 3694,
  "pages</w>": 3695,
  "paid</w>": 3696,
  "pain": 3697,
  "pain,</w>": 3698,
  "pain</w>": 3699,
  "pains</w>": 3700,
  "painted</w>": 3701,
  "painting</w>": 3702,
  "pal": 3703,
  "palace</w>": 3704,
  "par": 3705,
  "part": 3706,
  "part,</w>": 3707,
  "part</w>": 3708,
  "parti": 3709,
  "partis": 3710,
  "partly</w>": 3711,
  "parts</w>": 3712,
  "party,</w>": 3713,
  "party</w>": 3714,
  "pass": 3715,
  "pass</w>": 3716,
  "passage</w>": 3717,
  "passed</w>": 3718,
  "passi": 3719,
  "passing</w>": 3720,
  "passion</w>": 3721,
  "past": 3722,
  "past</w>": 3723,
  "pat": 3724,
  "path": 3725,
  "path</w>": 3726,
  "patr": 3727,
  "patri": 3728,
  "patron": 3729,
  "patron</w>": 3730,
  "pe": 3731,
  "peac": 3732,
  "peace</w>": 3733,
  "pec": 3734,
  "ped</w>": 3735,
  "pen": 3736,
  "peop": 3737,
  "people,</w>": 3738,
  "people</w>": 3739,
  "per": 3740,
  "perf": 3741,
  "perfect</w>": 3742,
  "perfection</w>": 3743,
  "perhap": 3744,
  "perhaps,</w>": 3745,
  "perhaps</w>": 3746,
  "peri": 3747,
  "perio": 3748,
  "period</w>": 3749,
  "perior</w>": 3750,
  "perman": 3751,
  "person": 3752,
  "personal</w>": 3753,
  "persons</w>": 3754,
  "pet": 3755,
  "ph": 3756,
  "phe": 3757,
  "philosop": 3758,
  "philosoph": 3759,
  "pi": 3760,
  "pic": 3761,
  "pil": 3762,
  "pilgri": 3763,
  "pilgrim": 3764,
  "ping</w>": 3765,
  "pit": 3766,
  "pitch</w>": 3767,
  "piti": 3768,
  "pity</w>": 3769,
  "pl": 3770,
  "plac": 3771,
  "place,</w>": 3772,
  "place.</w>": 3773,
  "place</w>": 3774,
  "placed</w>": 3775,
  "plain": 3776,
  "plain,</w>": 3777,
  "plain</w>": 3778,
  "plan": 3779,
  "planet": 3780,
  "play</w>": 3781,
  "played</w>": 3782,
  "ple": 3783,
  "ple,</w>": 3784,
  "pleas": 3785,
  "pleasure</w>": 3786,
  "pli": 3787,
  "plied</w>": 3788,
  "plun": 3789,
  "plunged</w>": 3790,
  "po": 3791,
  "poem": 3792,
  "poem</w>": 3793,
  "poet": 3794,
  "poet's</w>": 3795,
  "poet</w>": 3796,
  "poets</w>": 3797,
  "poin": 3798,
  "point</w>": 3799,
  "pointed</w>": 3800,
  "pol": 3801,
  "polic": 3802,
  "policy</w>": 3803,
  "polit": 3804,
  "politic": 3805,
  "political</w>": 3806,
  "politics</w>": 3807,
  "pop": 3808,
  "popul": 3809,
  "popular</w>": 3810,
  "por": 3811,
  "port": 3812,
  "port</w>": 3813,
  "portra": 3814,
  "portrait</w>": 3815,
  "pos": 3816,
  "pose</w>": 3817,
  "posed</w>": 3818,
  "position</w>": 3819,
  "poss": 3820,
  "possessed</w>": 3821,
  "possi": 3822,
  "possible</w>": 3823,
  "pow": 3824,
  "power": 3825,
  "power,</w>": 3826,
  "power</w>": 3827,
  "powerful</w>": 3828,
  "powers</w>": 3829,
  "pr": 3830,
  "pra": 3831,
  "prac": 3832,
  "praise</w>": 3833,
  "pray": 3834,
  "pre": 3835,
  "prec": 3836,
  "preced": 3837,
  "preceding</w>": 3838,
  "precip": 3839,
  "precipice</w>": 3840,
  "prep": 3841,
  "prepar": 3842,
  "pres": 3843,
  "presence</w>": 3844,
  "present": 3845,
  "present</w>": 3846,
  "preser": 3847,
  "preserved</w>": 3848,
  "pret": 3849,
  "previous</w>": 3850,
  "pri": 3851,
  "prid": 3852,
  "pride,</w>": 3853,
  "pride</w>": 3854,
  "priest": 3855,
  "prin": 3856,
  "prince</w>": 3857,
  "princi": 3858,
  "principl": 3859,
  "pris": 3860,
  "prise.</w>": 3861,
  "priv": 3862,
  "private</w>": 3863,
  "privile": 3864,
  "pro": 3865,
  "prob": 3866,
  "probable</w>": 3867,
  "probably</w>": 3868,
  "proc": 3869,
  "proce": 3870,
  "prof": 3871,
  "profession</w>": 3872,
  "profit</w>": 3873,
  "progre": 3874,
  "progress</w>": 3875,
  "prom": 3876,
  "promise</w>": 3877,
  "proof</w>": 3878,
  "prop": 3879,
  "proper": 3880,
  "proph": 3881,
  "prophec": 3882,
  "prophecy</w>": 3883,
  "pros": 3884,
  "prosper": 3885,
  "prot": 3886,
  "protection</w>": 3887,
  "prou": 3888,
  "proud</w>": 3889,
  "prov": 3890,
  "prove</w>": 3891,
  "proved</w>": 3892,
  "provid": 3893,
  "pu": 3894,
  "publ": 3895,
  "public": 3896,
  "public</w>": 3897,
  "published</w>": 3898,
  "pun": 3899,
  "punish": 3900,
  "punished</w>": 3901,
  "punishment</w>": 3902,
  "pur": 3903,
  "purpos": 3904,
  "purpose</w>": 3905,
  "purse</w>": 3906,
  "pursu": 3907,
  "put": 3908,
  "put</w>": 3909,
  "q": 3910,
  "qu": 3911,
  "qual": 3912,
  "quar": 3913,
  "quest": 3914,
  "question</w>": 3915,
  "quick": 3916,
  "quite</w>": 3917,
  "r": 3918,
  "ra": 3919,
  "rac": 3920,
  "race</w>": 3921,
  "rag": 3922,
  "rage</w>": 3923,
  "raised</w>": 3924,
  "ran": 3925,
  "ran</w>": 3926,
  "rank</w>": 3927,
  "ranks</w>": 3928,
  "rather</w>": 3929,
  "re": 3930,
  "re</w>": 3931,
  "rea": 3932,
  "reach</w>": 3933,
  "reached</w>": 3934,
  "read": 3935,
  "read</w>": 3936,
  "reader</w>": 3937,
  "reading</w>": 3938,
  "ready,</w>": 3939,
  "ready</w>": 3940,
  "real</w>": 3941,
  "ream</w>": 3942,
  "reas": 3943,
  "reason": 3944,
  "reason,</w>": 3945,
  "reason</w>": 3946,
  "reasure": 3947,
  "rebel": 3948,
  "rec": 3949,
  "recall</w>": 3950,
  "receiv": 3951,
  "receive</w>": 3952,
  "received</w>": 3953,
  "reck": 3954,
  "recogn": 3955,
  "reconc": 3956,
  "recor": 3957,
  "red": 3958,
  "red,</w>": 3959,
  "red</w>": 3960,
  "ref": 3961,
  "refer</w>": 3962,
  "reference</w>": 3963,
  "referred</w>": 3964,
  "refin": 3965,
  "refu": 3966,
  "refus": 3967,
  "reg": 3968,
  "regard": 3969,
  "regard</w>": 3970,
  "regarded</w>": 3971,
  "regarding</w>": 3972,
  "regi": 3973,
  "region</w>": 3974,
  "regions</w>": 3975,
  "regre": 3976,
  "reign": 3977,
  "rel": 3978,
  "rel</w>": 3979,
  "related</w>": 3980,
  "relation</w>": 3981,
  "reli": 3982,
  "religi": 3983,
  "religious</w>": 3984,
  "rem": 3985,
  "remain": 3986,
  "remain,</w>": 3987,
  "remain</w>": 3988,
  "remains</w>": 3989,
  "remar": 3990,
  "remark": 3991,
  "remarkable</w>": 3992,
  "ren": 3993,
  "renown": 3994,
  "rep": 3995,
  "repl": 3996,
  "repli": 3997,
  "replied:</w>": 3998,
  "reply,</w>": 3999,
  "represent": 4000,
  "represented</w>": 4001,
  "representing</w>": 4002,
  "represents</w>": 4003,
  "repro": 4004,
  "reputation</w>": 4005,
  "requ": 4006,
  "require": 4007,
  "required</w>": 4008,
  "resid": 4009,
  "residence</w>": 4010,
  "resign": 4011,
  "resol": 4012,
  "resp": 4013,
  "respec": 4014,
  "respect</w>": 4015,
  "respon": 4016,
  "rest": 4017,
  "rest</w>": 4018,
  "restor": 4019,
  "restr": 4020,
  "resul": 4021,
  "ret": 4022,
  "retain": 4023,
  "return": 4024,
  "return</w>": 4025,
  "returned</w>": 4026,
  "reve": 4027,
  "reveal": 4028,
  "reven": 4029,
  "revenge</w>": 4030,
  "rever": 4031,
  "reviv": 4032,
  "revival</w>": 4033,
  "revol": 4034,
  "rh": 4035,
  "ri": 4036,
  "rib": 4037,
  "ribut": 4038,
  "ric": 4039,
  "rich</w>": 4040,
  "rid": 4041,
  "right": 4042,
  "right,</w>": 4043,
  "right.</w>": 4044,
  "right</w>": 4045,
  "righteous</w>": 4046,
  "rights</w>": 4047,
  "rip": 4048,
  "ris": 4049,
  "rise</w>": 4050,
  "rist": 4051,
  "riv": 4052,
  "river</w>": 4053,
  "ro": 4054,
  "road": 4055,
  "road</w>": 4056,
  "rob": 4057,
  "rock": 4058,
  "rock</w>": 4059,
  "rocky</w>": 4060,
  "rog": 4061,
  "ron": 4062,
  "ronic": 4063,
  "room</w>": 4064,
  "rop": 4065,
  "rose</w>": 4066,
  "rou": 4067,
  "rough": 4068,
  "rough</w>": 4069,
  "rought</w>": 4070,
  "roun": 4071,
  "round": 4072,
  "round,</w>": 4073,
  "round</w>": 4074,
  "ru": 4075,
  "ruin": 4076,
  "ruin</w>": 4077,
  "ruined</w>": 4078,
  "rul": 4079,
  "rule</w>": 4080,
  "run": 4081,
  "run,</w>": 4082,
  "run</w>": 4083,
  "rup": 4084,
  "ry,</w>": 4085,
  "ry</w>": 4086,
  "s": 4087,
  "s'</w>": 4088,
  "s,</w>": 4089,
  "s--": 4090,
  "s--the</w>": 4091,
  "s.'</w>": 4092,
  "s.</w>": 4093,
  "s:</w>": 4094,
  "s;</w>": 4095,
  "s</w>": 4096,
  "s_:</w>": 4097,
  "sa": 4098,
  "sac": 4099,
  "saf": 4100,
  "said": 4101,
  "said,</w>": 4102,
  "said:</w>": 4103,
  "said</w>": 4104,
  "sal": 4105,
  "same</w>": 4106,
  "sand": 4107,
  "sand,</w>": 4108,
  "sand</w>": 4109,
  "sat": 4110,
  "sat</w>": 4111,
  "satis": 4112,
  "satisfied</w>": 4113,
  "sav": 4114,
  "save</w>": 4115,
  "saved</w>": 4116,
  "saw</w>": 4117,
  "say": 4118,
  "say,</w>": 4119,
  "say</w>": 4120,
  "saying</w>": 4121,
  "says,</w>": 4122,
  "says</w>": 4123,
  "sc": 4124,
  "scar": 4125,
  "scarc": 4126,
  "scarce</w>": 4127,
  "scarcely</w>": 4128,
  "scen": 4129,
  "sch": 4130,
  "scho": 4131,
  "schol": 4132,
  "scholar": 4133,
  "school": 4134,
  "school</w>": 4135,
  "sci": 4136,
  "scor": 4137,
  "scr": 4138,
  "se": 4139,
  "se,</w>": 4140,
  "se.</w>": 4141,
  "se</w>": 4142,
  "sea</w>": 4143,
  "sear": 4144,
  "search</w>": 4145,
  "seat</w>": 4146,
  "sec": 4147,
  "second</w>": 4148,
  "secre": 4149,
  "secret</w>": 4150,
  "secur": 4151,
  "secure</w>": 4152,
  "sed,</w>": 4153,
  "sed.</w>": 4154,
  "sed</w>": 4155,
  "see": 4156,
  "see</w>": 4157,
  "seed</w>": 4158,
  "seeing</w>": 4159,
  "seek</w>": 4160,
  "seeks</w>": 4161,
  "seem": 4162,
  "seem</w>": 4163,
  "seemed</w>": 4164,
  "seems</w>": 4165,
  "seen.</w>": 4166,
  "seen</w>": 4167,
  "seiz": 4168,
  "seized</w>": 4169,
  "sel": 4170,
  "sel</w>": 4171,
  "self": 4172,
  "self-": 4173,
  "self</w>": 4174,
  "selv": 4175,
  "selves</w>": 4176,
  "sem": 4177,
  "sembl": 4178,
  "sen": 4179,
  "sense,</w>": 4180,
  "sense</w>": 4181,
  "sent": 4182,
  "sent</w>": 4183,
  "sentence</w>": 4184,
  "sep": 4185,
  "ser": 4186,
  "serv": 4187,
  "serve</w>": 4188,
  "served</w>": 4189,
  "servic": 4190,
  "service</w>": 4191,
  "services</w>": 4192,
  "ses,</w>": 4193,
  "ses</w>": 4194,
  "set": 4195,
  "set</w>": 4196,
  "sett": 4197,
  "sev": 4198,
  "seven": 4199,
  "seven</w>": 4200,
  "sever": 4201,
  "several</w>": 4202,
  "severe</w>": 4203,
  "sh": 4204,
  "sh</w>": 4205,
  "sha": 4206,
  "shad": 4207,
  "shade</w>": 4208,
  "shades": 4209,
  "shades.</w>": 4210,
  "shades</w>": 4211,
  "shall</w>": 4212,
  "shalt</w>": 4213,
  "shame": 4214,
  "shameful</w>": 4215,
  "shar": 4216,
  "share</w>": 4217,
  "shared</w>": 4218,
  "sharp": 4219,
  "she": 4220,
  "she</w>": 4221,
  "shi": 4222,
  "shiel": 4223,
  "ship": 4224,
  "ship</w>": 4225,
  "shor": 4226,
  "shore</w>": 4227,
  "short</w>": 4228,
  "shoul": 4229,
  "should</w>": 4230,
  "shoulders</w>": 4231,
  "shouldst</w>": 4232,
  "show": 4233,
  "show</w>": 4234,
  "shown</w>": 4235,
  "shows</w>": 4236,
  "si": 4237,
  "sid": 4238,
  "side,</w>": 4239,
  "side.</w>": 4240,
  "side</w>": 4241,
  "sides</w>": 4242,
  "sie": 4243,
  "sigh": 4244,
  "sighs</w>": 4245,
  "sight": 4246,
  "sight,</w>": 4247,
  "sight</w>": 4248,
  "sign": 4249,
  "sign</w>": 4250,
  "signed</w>": 4251,
  "sil": 4252,
  "silence</w>": 4253,
  "simon": 4254,
  "sin": 4255,
  "sin.</w>": 4256,
  "sin</w>": 4257,
  "since</w>": 4258,
  "sing": 4259,
  "sing</w>": 4260,
  "single</w>": 4261,
  "sinn": 4262,
  "sinner</w>": 4263,
  "sinners</w>": 4264,
  "sins</w>": 4265,
  "sion</w>": 4266,
  "sist": 4267,
  "sister</w>": 4268,
  "situ": 4269,
  "six</w>": 4270,
  "sixth</w>": 4271,
  "sk": 4272,
  "sket": 4273,
  "sketch</w>": 4274,
  "sl": 4275,
  "sle": 4276,
  "slop": 4277,
  "slope</w>": 4278,
  "slow": 4279,
  "slow</w>": 4280,
  "sm": 4281,
  "small</w>": 4282,
  "sn": 4283,
  "so": 4284,
  "so,</w>": 4285,
  "so</w>": 4286,
  "soar": 4287,
  "sob": 4288,
  "soci": 4289,
  "society</w>": 4290,
  "sof": 4291,
  "sol": 4292,
  "some": 4293,
  "some</w>": 4294,
  "something</w>": 4295,
  "sometimes</w>": 4296,
  "somewhat</w>": 4297,
  "son": 4298,
  "son</w>": 4299,
  "song": 4300,
  "sonne": 4301,
  "sonnet</w>": 4302,
  "soo": 4303,
  "soon</w>": 4304,
  "sor": 4305,
  "sorr": 4306,
  "sort</w>": 4307,
  "sou": 4308,
  "sought</w>": 4309,
  "soul": 4310,
  "soul</w>": 4311,
  "souls</w>": 4312,
  "soun": 4313,
  "sour": 4314,
  "sourc": 4315,
  "source</w>": 4316,
  "sources</w>": 4317,
  "sp": 4318,
  "spake</w>": 4319,
  "spar": 4320,
  "spe": 4321,
  "speak": 4322,
  "speak</w>": 4323,
  "speaks</w>": 4324,
  "spec": 4325,
  "special</w>": 4326,
  "specially</w>": 4327,
  "specul": 4328,
  "spee": 4329,
  "speech</w>": 4330,
  "spend": 4331,
  "spend</w>": 4332,
  "spent</w>": 4333,
  "spir": 4334,
  "spirit": 4335,
  "spirit</w>": 4336,
  "spirits</w>": 4337,
  "spiritu": 4338,
  "spiritual</w>": 4339,
  "spite</w>": 4340,
  "spo": 4341,
  "spoken</w>": 4342,
  "spot": 4343,
  "spr": 4344,
  "spread</w>": 4345,
  "squ": 4346,
  "ss</w>": 4347,
  "st": 4348,
  "st,</w>": 4349,
  "st.</w>": 4350,
  "st</w>": 4351,
  "stage</w>": 4352,
  "stand": 4353,
  "stand</w>": 4354,
  "standing</w>": 4355,
  "stands</w>": 4356,
  "star": 4357,
  "stars</w>": 4358,
  "stat": 4359,
  "state</w>": 4360,
  "ste": 4361,
  "stead": 4362,
  "steep</w>": 4363,
  "step": 4364,
  "step</w>": 4365,
  "steps</w>": 4366,
  "ster": 4367,
  "still</w>": 4368,
  "stir": 4369,
  "stirred</w>": 4370,
  "ston": 4371,
  "stone,</w>": 4372,
  "stones</w>": 4373,
  "stood</w>": 4374,
  "stor": 4375,
  "store</w>": 4376,
  "story</w>": 4377,
  "str": 4378,
  "strai": 4379,
  "strange</w>": 4380,
  "stre": 4381,
  "stream": 4382,
  "stream</w>": 4383,
  "streets</w>": 4384,
  "streng": 4385,
  "strength</w>": 4386,
  "stret": 4387,
  "stri": 4388,
  "strong": 4389,
  "strong</w>": 4390,
  "struc": 4391,
  "stu": 4392,
  "stub": 4393,
  "stud": 4394,
  "studi": 4395,
  "study</w>": 4396,
  "sty": 4397,
  "style</w>": 4398,
  "su": 4399,
  "sub": 4400,
  "subj": 4401,
  "subject</w>": 4402,
  "succ": 4403,
  "succe": 4404,
  "succeeded</w>": 4405,
  "such</w>": 4406,
  "sudden</w>": 4407,
  "suff": 4408,
  "suffer": 4409,
  "suffer</w>": 4410,
  "suffered</w>": 4411,
  "suffering</w>": 4412,
  "suffic": 4413,
  "sufficient</w>": 4414,
  "sugg": 4415,
  "suggest": 4416,
  "suggested</w>": 4417,
  "suic": 4418,
  "sul": 4419,
  "sum": 4420,
  "summ": 4421,
  "sun": 4422,
  "sun</w>": 4423,
  "sup": 4424,
  "superior</w>": 4425,
  "supp": 4426,
  "supplied</w>": 4427,
  "suppos": 4428,
  "suppose</w>": 4429,
  "supposed</w>": 4430,
  "supre": 4431,
  "sur": 4432,
  "sure": 4433,
  "sure</w>": 4434,
  "surely</w>": 4435,
  "surpr": 4436,
  "survi": 4437,
  "sus": 4438,
  "sw": 4439,
  "swe": 4440,
  "sweet": 4441,
  "sweet</w>": 4442,
  "swell": 4443,
  "swi": 4444,
  "swif": 4445,
  "sy": 4446,
  "sym": 4447,
  "symbol": 4448,
  "symbol</w>": 4449,
  "symbolical</w>": 4450,
  "sympa": 4451,
  "sympath": 4452,
  "sympathy</w>": 4453,
  "syst": 4454,
  "system": 4455,
  "t": 4456,
  "t,</w>": 4457,
  "t--": 4458,
  "t.</w>": 4459,
  "t</w>": 4460,
  "ta": 4461,
  "ta'": 4462,
  "tac": 4463,
  "tain": 4464,
  "tain</w>": 4465,
  "tained</w>": 4466,
  "tak": 4467,
  "take</w>": 4468,
  "taken</w>": 4469,
  "takes</w>": 4470,
  "taking</w>": 4471,
  "tal": 4472,
  "tal</w>": 4473,
  "tale</w>": 4474,
  "tast": 4475,
  "tau": 4476,
  "taught</w>": 4477,
  "te": 4478,
  "te</w>": 4479,
  "tea": 4480,
  "tear": 4481,
  "tears</w>": 4482,
  "ted.</w>": 4483,
  "ted</w>": 4484,
  "teenth</w>": 4485,
  "tell": 4486,
  "tell,</w>": 4487,
  "tell</w>": 4488,
  "tells</w>": 4489,
  "temp": 4490,
  "temper</w>": 4491,
  "tempor": 4492,
  "ten": 4493,
  "ten</w>": 4494,
  "tend": 4495,
  "ter": 4496,
  "ter,</w>": 4497,
  "ter</w>": 4498,
  "tered</w>": 4499,
  "terms</w>": 4500,
  "terr": 4501,
  "terri": 4502,
  "terrible</w>": 4503,
  "territ": 4504,
  "territory</w>": 4505,
  "terror</w>": 4506,
  "ters</w>": 4507,
  "tes": 4508,
  "text</w>": 4509,
  "th": 4510,
  "th,</w>": 4511,
  "th.</w>": 4512,
  "th;</w>": 4513,
  "th</w>": 4514,
  "than</w>": 4515,
  "that,</w>": 4516,
  "that</w>": 4517,
  "the": 4518,
  "the</w>": 4519,
  "thedr": 4520,
  "thedral</w>": 4521,
  "thee,</w>": 4522,
  "thee</w>": 4523,
  "their</w>": 4524,
  "them": 4525,
  "them,</w>": 4526,
  "them.</w>": 4527,
  "them</w>": 4528,
  "themselves</w>": 4529,
  "then": 4530,
  "then,</w>": 4531,
  "then</w>": 4532,
  "thence</w>": 4533,
  "theory</w>": 4534,
  "ther": 4535,
  "ther,</w>": 4536,
  "ther</w>": 4537,
  "there": 4538,
  "there,</w>": 4539,
  "there.</w>": 4540,
  "there</w>": 4541,
  "therefore</w>": 4542,
  "thern</w>": 4543,
  "thers</w>": 4544,
  "thes": 4545,
  "these</w>": 4546,
  "they</w>": 4547,
  "thful</w>": 4548,
  "thin": 4549,
  "thin</w>": 4550,
  "thine</w>": 4551,
  "thing": 4552,
  "thing</w>": 4553,
  "things,</w>": 4554,
  "things</w>": 4555,
  "think": 4556,
  "think</w>": 4557,
  "thir": 4558,
  "thirteenth</w>": 4559,
  "thirty</w>": 4560,
  "this": 4561,
  "this,</w>": 4562,
  "this</w>": 4563,
  "thly</w>": 4564,
  "thor": 4565,
  "those</w>": 4566,
  "thou": 4567,
  "thou,</w>": 4568,
  "thou</w>": 4569,
  "though</w>": 4570,
  "thought": 4571,
  "thought,</w>": 4572,
  "thought</w>": 4573,
  "thoughts</w>": 4574,
  "thousand</w>": 4575,
  "thout</w>": 4576,
  "thr": 4577,
  "thre": 4578,
  "threat": 4579,
  "three</w>": 4580,
  "thri": 4581,
  "thro": 4582,
  "through": 4583,
  "through</w>": 4584,
  "throughout</w>": 4585,
  "thrown": 4586,
  "thrown</w>": 4587,
  "thrust</w>": 4588,
  "ths</w>": 4589,
  "thus</w>": 4590,
  "thy</w>": 4591,
  "ti": 4592,
  "ti,</w>": 4593,
  "ti.</w>": 4594,
  "ti</w>": 4595,
  "tic": 4596,
  "tic</w>": 4597,
  "ties</w>": 4598,
  "til</w>": 4599,
  "till</w>": 4600,
  "tim": 4601,
  "time,</w>": 4602,
  "time.</w>": 4603,
  "time</w>": 4604,
  "times</w>": 4605,
  "tin": 4606,
  "ting</w>": 4607,
  "tion": 4608,
  "tion,</w>": 4609,
  "tion.</w>": 4610,
  "tion</w>": 4611,
  "tions</w>": 4612,
  "tit": 4613,
  "title</w>": 4614,
  "tiv": 4615,
  "tive</w>": 4616,
  "tly</w>": 4617,
  "to": 4618,
  "to's</w>": 4619,
  "to,</w>": 4620,
  "to.</w>": 4621,
  "to</w>": 4622,
  "toge": 4623,
  "together,</w>": 4624,
  "together</w>": 4625,
  "tol": 4626,
  "told,</w>": 4627,
  "told</w>": 4628,
  "tomb": 4629,
  "tomb</w>": 4630,
  "tombs</w>": 4631,
  "ton": 4632,
  "tone</w>": 4633,
  "tong": 4634,
  "tongu": 4635,
  "tongue</w>": 4636,
  "too": 4637,
  "too,</w>": 4638,
  "too</w>": 4639,
  "took</w>": 4640,
  "top</w>": 4641,
  "tor": 4642,
  "torment": 4643,
  "tormented</w>": 4644,
  "torments</w>": 4645,
  "torn</w>": 4646,
  "tou": 4647,
  "touch</w>": 4648,
  "touching</w>": 4649,
  "tow": 4650,
  "toward</w>": 4651,
  "towards</w>": 4652,
  "town": 4653,
  "town</w>": 4654,
  "towns": 4655,
  "townsmen</w>": 4656,
  "tr": 4657,
  "tra": 4658,
  "trac": 4659,
  "trace</w>": 4660,
  "trad": 4661,
  "trade</w>": 4662,
  "trait": 4663,
  "tran": 4664,
  "trans": 4665,
  "transl": 4666,
  "trav": 4667,
  "tre": 4668,
  "trea": 4669,
  "treat": 4670,
  "treat</w>": 4671,
  "treatment</w>": 4672,
  "treats</w>": 4673,
  "trem": 4674,
  "trembling</w>": 4675,
  "tri": 4676,
  "trium": 4677,
  "triumph": 4678,
  "triumph</w>": 4679,
  "tro": 4680,
  "tro</w>": 4681,
  "trou": 4682,
  "troubl": 4683,
  "troubled</w>": 4684,
  "tru": 4685,
  "true,</w>": 4686,
  "true</w>": 4687,
  "trum": 4688,
  "trust": 4689,
  "trust</w>": 4690,
  "truth</w>": 4691,
  "ts,</w>": 4692,
  "ts</w>": 4693,
  "tt": 4694,
  "tu": 4695,
  "tun": 4696,
  "tuous</w>": 4697,
  "tur": 4698,
  "ture": 4699,
  "ture</w>": 4700,
  "tured</w>": 4701,
  "turn": 4702,
  "turn</w>": 4703,
  "turned</w>": 4704,
  "turning</w>": 4705,
  "turns</w>": 4706,
  "tw": 4707,
  "tward</w>": 4708,
  "twel": 4709,
  "twent": 4710,
  "twenty-": 4711,
  "twi": 4712,
  "twist": 4713,
  "twisted</w>": 4714,
  "two</w>": 4715,
  "ty-": 4716,
  "ty</w>": 4717,
  "tyr": 4718,
  "u": 4719,
  "ual</w>": 4720,
  "uary</w>": 4721,
  "ub": 4722,
  "ublic": 4723,
  "ublic</w>": 4724,
  "uc": 4725,
  "ucci": 4726,
  "ud": 4727,
  "ude</w>": 4728,
  "ue.</w>": 4729,
  "ue</w>": 4730,
  "ul": 4731,
  "ular</w>": 4732,
  "ulch": 4733,
  "ulchre": 4734,
  "ulg": 4735,
  "uli": 4736,
  "ult": 4737,
  "um": 4738,
  "umb": 4739,
  "umber</w>": 4740,
  "un": 4741,
  "unbelief": 4742,
  "unc": 4743,
  "und": 4744,
  "under": 4745,
  "under</w>": 4746,
  "understand</w>": 4747,
  "understood</w>": 4748,
  "une</w>": 4749,
  "ung": 4750,
  "ung</w>": 4751,
  "until</w>": 4752,
  "unto</w>": 4753,
  "up": 4754,
  "up,</w>": 4755,
  "up</w>": 4756,
  "upon</w>": 4757,
  "ur": 4758,
  "ur</w>": 4759,
  "ure": 4760,
  "ure,</w>": 4761,
  "ure.</w>": 4762,
  "ure</w>": 4763,
  "ured</w>": 4764,
  "ures</w>": 4765,
  "urg": 4766,
  "urged</w>": 4767,
  "uring</w>": 4768,
  "us": 4769,
  "us'</w>": 4770,
  "us,</w>": 4771,
  "us--": 4772,
  "us.</w>": 4773,
  "us;</w>": 4774,
  "us</w>": 4775,
  "us_:</w>": 4776,
  "use</w>": 4777,
  "used</w>": 4778,
  "uses</w>": 4779,
  "ush": 4780,
  "using</w>": 4781,
  "usion</w>": 4782,
  "ust": 4783,
  "ust</w>": 4784,
  "ustic": 4785,
  "usticucci": 4786,
  "ustr": 4787,
  "ustri": 4788,
  "ustrious</w>": 4789,
  "usu": 4790,
  "usual</w>": 4791,
  "usually</w>": 4792,
  "usur": 4793,
  "ut": 4794,
  "ut,</w>": 4795,
  "ut</w>": 4796,
  "utation</w>": 4797,
  "ute</w>": 4798,
  "uted</w>": 4799,
  "ution</w>": 4800,
  "utter": 4801,
  "v": 4802,
  "v.</w>": 4803,
  "vain</w>": 4804,
  "val": 4805,
  "valley</w>": 4806,
  "value</w>": 4807,
  "van": 4808,
  "var": 4809,
  "various</w>": 4810,
  "vast</w>": 4811,
  "ve": 4812,
  "ve</w>": 4813,
  "ved</w>": 4814,
  "ven": 4815,
  "ven</w>": 4816,
  "veng": 4817,
  "venge": 4818,
  "vengeance</w>": 4819,
  "vent": 4820,
  "ventured</w>": 4821,
  "ver": 4822,
  "ver,</w>": 4823,
  "ver</w>": 4824,
  "verse</w>": 4825,
  "very</w>": 4826,
  "ves": 4827,
  "ves</w>": 4828,
  "vi": 4829,
  "vi.</w>": 4830,
  "vic": 4831,
  "vice</w>": 4832,
  "vict": 4833,
  "victi": 4834,
  "victim</w>": 4835,
  "victor": 4836,
  "victory</w>": 4837,
  "vid</w>": 4838,
  "vie": 4839,
  "view": 4840,
  "view</w>": 4841,
  "vii.</w>": 4842,
  "viii.</w>": 4843,
  "vil": 4844,
  "vil</w>": 4845,
  "ving</w>": 4846,
  "viol": 4847,
  "violence</w>": 4848,
  "violent</w>": 4849,
  "vious</w>": 4850,
  "vir": 4851,
  "virtu": 4852,
  "virtuous</w>": 4853,
  "vis": 4854,
  "visi": 4855,
  "visible</w>": 4856,
  "vision</w>": 4857,
  "vit": 4858,
  "viv": 4859,
  "vo": 4860,
  "voic": 4861,
  "voice</w>": 4862,
  "voices</w>": 4863,
  "vol": 4864,
  "vol.</w>": 4865,
  "vulg": 4866,
  "vulgar</w>": 4867,
  "w": 4868,
  "w,</w>": 4869,
  "w</w>": 4870,
  "wa": 4871,
  "wal": 4872,
  "wall": 4873,
  "wall</w>": 4874,
  "walls</w>": 4875,
  "wand": 4876,
  "want</w>": 4877,
  "wanting</w>": 4878,
  "war": 4879,
  "war</w>": 4880,
  "ward": 4881,
  "ward</w>": 4882,
  "wards</w>": 4883,
  "warm": 4884,
  "was": 4885,
  "was,</w>": 4886,
  "was</w>": 4887,
  "wast": 4888,
  "waste</w>": 4889,
  "wat": 4890,
  "water</w>": 4891,
  "waters</w>": 4892,
  "way": 4893,
  "way,</w>": 4894,
  "way</w>": 4895,
  "ways</w>": 4896,
  "we": 4897,
  "we</w>": 4898,
  "weak": 4899,
  "weal": 4900,
  "wealth</w>": 4901,
  "wealthy</w>": 4902,
  "wear": 4903,
  "wearied</w>": 4904,
  "ween</w>": 4905,
  "weep": 4906,
  "weeping</w>": 4907,
  "weigh": 4908,
  "weight</w>": 4909,
  "wel": 4910,
  "well": 4911,
  "well,</w>": 4912,
  "well-": 4913,
  "well</w>": 4914,
  "went": 4915,
  "went,</w>": 4916,
  "went</w>": 4917,
  "were,</w>": 4918,
  "were</w>": 4919,
  "wh": 4920,
  "what</w>": 4921,
  "whe": 4922,
  "wheeled</w>": 4923,
  "whel": 4924,
  "when,</w>": 4925,
  "when</w>": 4926,
  "whence</w>": 4927,
  "where": 4928,
  "where</w>": 4929,
  "whether</w>": 4930,
  "whi": 4931,
  "which,</w>": 4932,
  "which</w>": 4933,
  "while</w>": 4934,
  "who,</w>": 4935,
  "who</w>": 4936,
  "whol": 4937,
  "whole</w>": 4938,
  "wholly</w>": 4939,
  "whom</w>": 4940,
  "whose</w>": 4941,
  "why</w>": 4942,
  "wi": 4943,
  "wic": 4944,
  "wicked</w>": 4945,
  "wid": 4946,
  "wide</w>": 4947,
  "wider</w>": 4948,
  "wif": 4949,
  "wife</w>": 4950,
  "wil": 4951,
  "will": 4952,
  "will,</w>": 4953,
  "will</w>": 4954,
  "willing": 4955,
  "willing</w>": 4956,
  "win": 4957,
  "win,</w>": 4958,
  "win</w>": 4959,
  "wind": 4960,
  "wind</w>": 4961,
  "wis": 4962,
  "wise</w>": 4963,
  "wish</w>": 4964,
  "wished</w>": 4965,
  "wit": 4966,
  "wit</w>": 4967,
  "with": 4968,
  "with,</w>": 4969,
  "with</w>": 4970,
  "within</w>": 4971,
  "without</w>": 4972,
  "wo": 4973,
  "woe</w>": 4974,
  "wol": 4975,
  "wom": 4976,
  "woman": 4977,
  "woman</w>": 4978,
  "won": 4979,
  "won</w>": 4980,
  "wonder</w>": 4981,
  "wood": 4982,
  "wood</w>": 4983,
  "wor": 4984,
  "word": 4985,
  "word</w>": 4986,
  "words,</w>": 4987,
  "words</w>": 4988,
  "wore</w>": 4989,
  "work": 4990,
  "work,</w>": 4991,
  "work</w>": 4992,
  "works</w>": 4993,
  "worl": 4994,
  "world,</w>": 4995,
  "world.</w>": 4996,
  "world</w>": 4997,
  "worldly</w>": 4998,
  "worn</w>": 4999,
  "worse</w>": 5000,
  "worst</w>": 5001,
  "worth</w>": 5002,
  "worthy</w>": 5003,
  "woul": 5004,
  "would</w>": 5005,
  "wr": 5006,
  "wret": 5007,
  "wretched</w>": 5008,
  "writ": 5009,
  "write</w>": 5010,
  "writt": 5011,
  "written,</w>": 5012,
  "written</w>": 5013,
  "wro": 5014,
  "wrong</w>": 5015,
  "wrote</w>": 5016,
  "wrought</w>": 5017,
  "x": 5018,
  "x.</w>": 5019,
  "x</w>": 5020,
  "xed</w>": 5021,
  "xi.</w>": 5022,
  "xii.</w>": 5023,
  "xix.</w>": 5024,
  "xth</w>": 5025,
  "xvi": 5026,
  "xvi.</w>": 5027,
  "xvii.</w>": 5028,
  "xx": 5029,
  "xx.</w>": 5030,
  "xxi.</w>": 5031,
  "xxiv.</w>": 5032,
  "xxv.</w>": 5033,
  "xxvi": 5034,
  "xxvii.</w>": 5035,
  "xxx": 5036,
  "y": 5037,
  "y's</w>": 5038,
  "y,'</w>": 5039,
  "y,</w>": 5040,
  "y-": 5041,
  "y--": 5042,
  "y.'</w>": 5043,
  "y.</w>": 5044,
  "y:</w>": 5045,
  "y;</w>": 5046,
  "y</w>": 5047,
  "y_:</w>": 5048,
  "ye</w>": 5049,
  "year": 5050,
  "year,</w>": 5051,
  "year</w>": 5052,
  "years.</w>": 5053,
  "years</w>": 5054,
  "yet,</w>": 5055,
  "yet</w>": 5056,
  "yiel": 5057,
  "yielding</w>": 5058,
  "ying</w>": 5059,
  "yl": 5060,
  "yon": 5061,
  "you": 5062,
  "you</w>": 5063,
  "youn": 5064,
  "young</w>": 5065,
  "your</w>": 5066,
  "youthful</w>": 5067,
  "yp": 5068,
  "yr": 5069,
  "ys": 5070,
  "ything</w>": 5071,
  "z": 5072,
  "zed</w>": 5073,
  "zz": 5074,
  "£": 5075,
  "Æ": 5076,
  "Æne": 5077,
  "Æneas</w>": 5078,
  "ä": 5079,
  "æ": 5080,
  "æs": 5081,
  "ç": 5082,
  "è": 5083,
  "èd</w>": 5084,
  "é": 5085,
  "ë": 5086,
  "ì": 5087,
  "ï": 5088,
  "ò": 5089,
  "ö": 5090,
  "ü": 5091
}